{
  "version": "1.0",
  "truncation": null,
  "padding": null,
  "added_tokens": [
    {
      "id": 0,
      "content": "<unk>",
      "single_word": false,
      "lstrip": false,
      "rstrip": false,
      "normalized": false,
      "special": true
    },
    {
      "id": 1,
      "content": "<s>",
      "single_word": false,
      "lstrip": false,
      "rstrip": false,
      "normalized": false,
      "special": true
    },
    {
      "id": 2,
      "content": "</s>",
      "single_word": false,
      "lstrip": false,
      "rstrip": false,
      "normalized": false,
      "special": true
    },
    {
      "id": 3,
      "content": "<pad>",
      "single_word": false,
      "lstrip": false,
      "rstrip": false,
      "normalized": false,
      "special": true
    },
    {
      "id": 4,
      "content": "<mask>",
      "single_word": false,
      "lstrip": false,
      "rstrip": false,
      "normalized": false,
      "special": true
    }
  ],
  "normalizer": {
    "type": "Sequence",
    "normalizers": [
      {
        "type": "Lowercase"
      },
      {
        "type": "StripAccents"
      }
    ]
  },
  "pre_tokenizer": {
    "type": "Whitespace"
  },
  "post_processor": {
    "type": "TemplateProcessing",
    "single": [
      {
        "SpecialToken": {
          "id": "<s>",
          "type_id": 0
        }
      },
      {
        "Sequence": {
          "id": "A",
          "type_id": 0
        }
      },
      {
        "SpecialToken": {
          "id": "</s>",
          "type_id": 0
        }
      }
    ],
    "pair": [
      {
        "SpecialToken": {
          "id": "<s>",
          "type_id": 0
        }
      },
      {
        "Sequence": {
          "id": "A",
          "type_id": 0
        }
      },
      {
        "SpecialToken": {
          "id": "</s>",
          "type_id": 0
        }
      },
      {
        "Sequence": {
          "id": "B",
          "type_id": 1
        }
      },
      {
        "SpecialToken": {
          "id": "</s>",
          "type_id": 1
        }
      }
    ],
    "special_tokens": {
      "</s>": {
        "id": "</s>",
        "ids": [
          2
        ],
        "tokens": [
          "</s>"
        ]
      },
      "<s>": {
        "id": "<s>",
        "ids": [
          1
        ],
        "tokens": [
          "<s>"
        ]
      }
    }
  },
  "decoder": null,
  "model": {
    "type": "BPE",
    "dropout": null,
    "unk_token": null,
    "continuing_subword_prefix": "_<w>",
    "end_of_word_suffix": "</w>",
    "fuse_unk": false,
    "byte_fallback": false,
    "ignore_merges": false,
    "vocab": {
      "<unk>": 0,
      "<s>": 1,
      "</s>": 2,
      "<pad>": 3,
      "<mask>": 4,
      "!": 5,
      "\"": 6,
      "$": 7,
      "%": 8,
      "'": 9,
      "(": 10,
      ")": 11,
      "+": 12,
      ",": 13,
      "-": 14,
      ".": 15,
      "/": 16,
      "0": 17,
      "1": 18,
      "2": 19,
      "3": 20,
      "4": 21,
      "5": 22,
      "6": 23,
      "7": 24,
      "8": 25,
      "9": 26,
      ":": 27,
      ";": 28,
      "=": 29,
      "?": 30,
      "[": 31,
      "]": 32,
      "_": 33,
      "a": 34,
      "b": 35,
      "c": 36,
      "d": 37,
      "e": 38,
      "f": 39,
      "g": 40,
      "h": 41,
      "i": 42,
      "j": 43,
      "k": 44,
      "l": 45,
      "m": 46,
      "n": 47,
      "o": 48,
      "p": 49,
      "q": 50,
      "r": 51,
      "s": 52,
      "t": 53,
      "u": 54,
      "v": 55,
      "w": 56,
      "x": 57,
      "y": 58,
      "z": 59,
      "{": 60,
      "}": 61,
      "£": 62,
      "¥": 63,
      "€": 64,
      "一": 65,
      "丁": 66,
      "七": 67,
      "万": 68,
      "丈": 69,
      "三": 70,
      "上": 71,
      "下": 72,
      "不": 73,
      "与": 74,
      "丐": 75,
      "丑": 76,
      "专": 77,
      "且": 78,
      "丕": 79,
      "世": 80,
      "丘": 81,
      "丙": 82,
      "业": 83,
      "丛": 84,
      "东": 85,
      "丝": 86,
      "丟": 87,
      "両": 88,
      "丢": 89,
      "两": 90,
      "严": 91,
      "並": 92,
      "丧": 93,
      "个": 94,
      "中": 95,
      "丰": 96,
      "串": 97,
      "临": 98,
      "丸": 99,
      "丹": 100,
      "为": 101,
      "主": 102,
      "丼": 103,
      "丽": 104,
      "举": 105,
      "乀": 106,
      "乃": 107,
      "久": 108,
      "么": 109,
      "义": 110,
      "之": 111,
      "乌": 112,
      "乍": 113,
      "乎": 114,
      "乏": 115,
      "乐": 116,
      "乒": 117,
      "乓": 118,
      "乔": 119,
      "乖": 120,
      "乗": 121,
      "乘": 122,
      "乙": 123,
      "九": 124,
      "乞": 125,
      "也": 126,
      "习": 127,
      "乡": 128,
      "书": 129,
      "买": 130,
      "乱": 131,
      "乳": 132,
      "乾": 133,
      "亀": 134,
      "亂": 135,
      "了": 136,
      "予": 137,
      "争": 138,
      "事": 139,
      "二": 140,
      "于": 141,
      "亏": 142,
      "亐": 143,
      "云": 144,
      "互": 145,
      "五": 146,
      "井": 147,
      "亚": 148,
      "些": 149,
      "亜": 150,
      "亞": 151,
      "亡": 152,
      "交": 153,
      "亥": 154,
      "亦": 155,
      "产": 156,
      "亨": 157,
      "亩": 158,
      "享": 159,
      "京": 160,
      "亭": 161,
      "亮": 162,
      "亲": 163,
      "亵": 164,
      "人": 165,
      "亿": 166,
      "什": 167,
      "仁": 168,
      "仄": 169,
      "仅": 170,
      "仆": 171,
      "仇": 172,
      "今": 173,
      "介": 174,
      "仍": 175,
      "从": 176,
      "仏": 177,
      "仑": 178,
      "仓": 179,
      "仔": 180,
      "仕": 181,
      "他": 182,
      "仗": 183,
      "付": 184,
      "仙": 185,
      "仝": 186,
      "仡": 187,
      "代": 188,
      "令": 189,
      "以": 190,
      "仪": 191,
      "仫": 192,
      "们": 193,
      "仮": 194,
      "仰": 195,
      "仲": 196,
      "件": 197,
      "价": 198,
      "任": 199,
      "份": 200,
      "仿": 201,
      "企": 202,
      "伊": 203,
      "伍": 204,
      "伎": 205,
      "伏": 206,
      "伐": 207,
      "休": 208,
      "众": 209,
      "优": 210,
      "伙": 211,
      "会": 212,
      "伝": 213,
      "伞": 214,
      "伟": 215,
      "传": 216,
      "伤": 217,
      "伦": 218,
      "伪": 219,
      "伯": 220,
      "估": 221,
      "伴": 222,
      "伶": 223,
      "伸": 224,
      "伺": 225,
      "似": 226,
      "伽": 227,
      "佃": 228,
      "但": 229,
      "佇": 230,
      "佈": 231,
      "位": 232,
      "低": 233,
      "住": 234,
      "佐": 235,
      "佑": 236,
      "体": 237,
      "佔": 238,
      "何": 239,
      "佗": 240,
      "佘": 241,
      "余": 242,
      "佛": 243,
      "作": 244,
      "佝": 245,
      "佟": 246,
      "你": 247,
      "佣": 248,
      "佤": 249,
      "佩": 250,
      "佬": 251,
      "佰": 252,
      "佳": 253,
      "併": 254,
      "佶": 255,
      "佸": 256,
      "佺": 257,
      "佼": 258,
      "使": 259,
      "侂": 260,
      "侄": 261,
      "來": 262,
      "侈": 263,
      "例": 264,
      "侍": 265,
      "侏": 266,
      "侖": 267,
      "侗": 268,
      "侘": 269,
      "供": 270,
      "依": 271,
      "侠": 272,
      "侣": 273,
      "侦": 274,
      "侧": 275,
      "侨": 276,
      "侬": 277,
      "侮": 278,
      "侯": 279,
      "侵": 280,
      "侶": 281,
      "便": 282,
      "係": 283,
      "促": 284,
      "俄": 285,
      "俊": 286,
      "俏": 287,
      "俐": 288,
      "俑": 289,
      "俗": 290,
      "俘": 291,
      "保": 292,
      "俞": 293,
      "俠": 294,
      "信": 295,
      "俣": 296,
      "俩": 297,
      "修": 298,
      "俯": 299,
      "俱": 300,
      "俸": 301,
      "俺": 302,
      "倆": 303,
      "倉": 304,
      "個": 305,
      "倍": 306,
      "們": 307,
      "倒": 308,
      "倖": 309,
      "候": 310,
      "倚": 311,
      "借": 312,
      "倡": 313,
      "値": 314,
      "倦": 315,
      "倧": 316,
      "倩": 317,
      "倪": 318,
      "倫": 319,
      "倭": 320,
      "倶": 321,
      "债": 322,
      "倻": 323,
      "值": 324,
      "倾": 325,
      "假": 326,
      "偈": 327,
      "偉": 328,
      "偏": 329,
      "做": 330,
      "停": 331,
      "健": 332,
      "偲": 333,
      "側": 334,
      "偵": 335,
      "偶": 336,
      "偷": 337,
      "偸": 338,
      "偽": 339,
      "偿": 340,
      "傀": 341,
      "傅": 342,
      "傈": 343,
      "傍": 344,
      "傑": 345,
      "傘": 346,
      "備": 347,
      "傢": 348,
      "傣": 349,
      "储": 350,
      "催": 351,
      "傭": 352,
      "傲": 353,
      "傳": 354,
      "債": 355,
      "傷": 356,
      "傻": 357,
      "傾": 358,
      "僂": 359,
      "僅": 360,
      "働": 361,
      "像": 362,
      "僑": 363,
      "僕": 364,
      "僖": 365,
      "僚": 366,
      "僦": 367,
      "僧": 368,
      "僱": 369,
      "僳": 370,
      "僵": 371,
      "價": 372,
      "僻": 373,
      "僿": 374,
      "儀": 375,
      "儂": 376,
      "億": 377,
      "儅": 378,
      "儒": 379,
      "儔": 380,
      "儗": 381,
      "儘": 382,
      "儚": 383,
      "償": 384,
      "儡": 385,
      "優": 386,
      "儲": 387,
      "儿": 388,
      "兀": 389,
      "允": 390,
      "元": 391,
      "兄": 392,
      "充": 393,
      "兆": 394,
      "兇": 395,
      "先": 396,
      "光": 397,
      "克": 398,
      "兌": 399,
      "免": 400,
      "兎": 401,
      "児": 402,
      "兑": 403,
      "兒": 404,
      "兔": 405,
      "党": 406,
      "兜": 407,
      "入": 408,
      "內": 409,
      "全": 410,
      "兩": 411,
      "八": 412,
      "公": 413,
      "六": 414,
      "兰": 415,
      "共": 416,
      "关": 417,
      "兴": 418,
      "兵": 419,
      "其": 420,
      "具": 421,
      "典": 422,
      "兹": 423,
      "养": 424,
      "兼": 425,
      "兽": 426,
      "内": 427,
      "円": 428,
      "冈": 429,
      "冉": 430,
      "冊": 431,
      "册": 432,
      "再": 433,
      "冑": 434,
      "冒": 435,
      "冕": 436,
      "冗": 437,
      "写": 438,
      "军": 439,
      "农": 440,
      "冠": 441,
      "冢": 442,
      "冤": 443,
      "冥": 444,
      "冨": 445,
      "冪": 446,
      "冬": 447,
      "冯": 448,
      "冰": 449,
      "冲": 450,
      "决": 451,
      "况": 452,
      "冶": 453,
      "冷": 454,
      "冻": 455,
      "冼": 456,
      "净": 457,
      "凄": 458,
      "准": 459,
      "凉": 460,
      "凋": 461,
      "凌": 462,
      "凍": 463,
      "减": 464,
      "凑": 465,
      "凛": 466,
      "凝": 467,
      "几": 468,
      "凡": 469,
      "凤": 470,
      "処": 471,
      "凧": 472,
      "凭": 473,
      "凯": 474,
      "凰": 475,
      "凱": 476,
      "凳": 477,
      "凶": 478,
      "凸": 479,
      "凹": 480,
      "出": 481,
      "击": 482,
      "函": 483,
      "凿": 484,
      "刀": 485,
      "刁": 486,
      "刃": 487,
      "分": 488,
      "切": 489,
      "刈": 490,
      "刊": 491,
      "刍": 492,
      "刑": 493,
      "划": 494,
      "列": 495,
      "刘": 496,
      "则": 497,
      "刚": 498,
      "创": 499,
      "初": 500,
      "删": 501,
      "判": 502,
      "別": 503,
      "刨": 504,
      "利": 505,
      "刪": 506,
      "别": 507,
      "刮": 508,
      "到": 509,
      "制": 510,
      "刷": 511,
      "券": 512,
      "刹": 513,
      "刺": 514,
      "刻": 515,
      "剁": 516,
      "剂": 517,
      "剃": 518,
      "則": 519,
      "剉": 520,
      "削": 521,
      "剋": 522,
      "剌": 523,
      "前": 524,
      "剎": 525,
      "剑": 526,
      "剔": 527,
      "剖": 528,
      "剛": 529,
      "剝": 530,
      "剡": 531,
      "剣": 532,
      "剤": 533,
      "剥": 534,
      "剧": 535,
      "剩": 536,
      "剪": 537,
      "副": 538,
      "割": 539,
      "創": 540,
      "剸": 541,
      "劃": 542,
      "劇": 543,
      "劈": 544,
      "劉": 545,
      "劍": 546,
      "劑": 547,
      "力": 548,
      "劝": 549,
      "办": 550,
      "功": 551,
      "加": 552,
      "务": 553,
      "劣": 554,
      "动": 555,
      "助": 556,
      "努": 557,
      "劫": 558,
      "励": 559,
      "劲": 560,
      "劳": 561,
      "労": 562,
      "効": 563,
      "势": 564,
      "勁": 565,
      "勃": 566,
      "勇": 567,
      "勉": 568,
      "勋": 569,
      "勐": 570,
      "勒": 571,
      "動": 572,
      "勘": 573,
      "務": 574,
      "勛": 575,
      "勝": 576,
      "勞": 577,
      "募": 578,
      "勢": 579,
      "勤": 580,
      "勳": 581,
      "勵": 582,
      "勸": 583,
      "勺": 584,
      "勻": 585,
      "勾": 586,
      "勿": 587,
      "匀": 588,
      "包": 589,
      "匆": 590,
      "匈": 591,
      "匕": 592,
      "化": 593,
      "北": 594,
      "匙": 595,
      "匝": 596,
      "匠": 597,
      "匡": 598,
      "匣": 599,
      "匪": 600,
      "匮": 601,
      "匯": 602,
      "匱": 603,
      "匹": 604,
      "区": 605,
      "医": 606,
      "匾": 607,
      "匿": 608,
      "區": 609,
      "十": 610,
      "千": 611,
      "卅": 612,
      "升": 613,
      "午": 614,
      "卉": 615,
      "半": 616,
      "华": 617,
      "协": 618,
      "卑": 619,
      "卒": 620,
      "卓": 621,
      "協": 622,
      "单": 623,
      "卖": 624,
      "南": 625,
      "博": 626,
      "卜": 627,
      "卟": 628,
      "占": 629,
      "卡": 630,
      "卢": 631,
      "卤": 632,
      "卦": 633,
      "卧": 634,
      "卫": 635,
      "卯": 636,
      "印": 637,
      "危": 638,
      "即": 639,
      "却": 640,
      "卵": 641,
      "卷": 642,
      "卸": 643,
      "卻": 644,
      "卼": 645,
      "卿": 646,
      "厂": 647,
      "厄": 648,
      "厅": 649,
      "历": 650,
      "厉": 651,
      "压": 652,
      "厌": 653,
      "厕": 654,
      "厘": 655,
      "厚": 656,
      "厝": 657,
      "原": 658,
      "厢": 659,
      "厥": 660,
      "厦": 661,
      "厨": 662,
      "厭": 663,
      "厲": 664,
      "厳": 665,
      "去": 666,
      "县": 667,
      "参": 668,
      "參": 669,
      "又": 670,
      "叉": 671,
      "及": 672,
      "友": 673,
      "双": 674,
      "反": 675,
      "収": 676,
      "发": 677,
      "叔": 678,
      "取": 679,
      "受": 680,
      "变": 681,
      "叙": 682,
      "叛": 683,
      "叠": 684,
      "叢": 685,
      "口": 686,
      "古": 687,
      "句": 688,
      "另": 689,
      "叨": 690,
      "只": 691,
      "叫": 692,
      "召": 693,
      "叭": 694,
      "叮": 695,
      "可": 696,
      "台": 697,
      "叱": 698,
      "史": 699,
      "右": 700,
      "叶": 701,
      "号": 702,
      "司": 703,
      "叹": 704,
      "叻": 705,
      "叽": 706,
      "吁": 707,
      "吃": 708,
      "各": 709,
      "合": 710,
      "吉": 711,
      "吊": 712,
      "同": 713,
      "名": 714,
      "后": 715,
      "吏": 716,
      "吐": 717,
      "向": 718,
      "吒": 719,
      "吓": 720,
      "吕": 721,
      "吗": 722,
      "君": 723,
      "吞": 724,
      "吟": 725,
      "吠": 726,
      "吡": 727,
      "否": 728,
      "吧": 729,
      "吨": 730,
      "含": 731,
      "听": 732,
      "吮": 733,
      "启": 734,
      "吳": 735,
      "吴": 736,
      "吵": 737,
      "吸": 738,
      "吹": 739,
      "吻": 740,
      "吼": 741,
      "吾": 742,
      "呀": 743,
      "呂": 744,
      "呆": 745,
      "呈": 746,
      "告": 747,
      "呋": 748,
      "呏": 749,
      "呐": 750,
      "呒": 751,
      "呕": 752,
      "员": 753,
      "呢": 754,
      "呤": 755,
      "周": 756,
      "呪": 757,
      "味": 758,
      "呵": 759,
      "呼": 760,
      "命": 761,
      "咀": 762,
      "咆": 763,
      "和": 764,
      "咎": 765,
      "咏": 766,
      "咒": 767,
      "咕": 768,
      "咖": 769,
      "咙": 770,
      "咤": 771,
      "咨": 772,
      "咩": 773,
      "咪": 774,
      "咬": 775,
      "咯": 776,
      "咲": 777,
      "咳": 778,
      "咸": 779,
      "咽": 780,
      "哀": 781,
      "品": 782,
      "哄": 783,
      "哇": 784,
      "哈": 785,
      "哉": 786,
      "响": 787,
      "哎": 788,
      "哏": 789,
      "哑": 790,
      "哔": 791,
      "員": 792,
      "哥": 793,
      "哦": 794,
      "哨": 795,
      "哩": 796,
      "哪": 797,
      "哭": 798,
      "哮": 799,
      "哲": 800,
      "哺": 801,
      "哼": 802,
      "唄": 803,
      "唇": 804,
      "唐": 805,
      "唑": 806,
      "唔": 807,
      "唤": 808,
      "售": 809,
      "唯": 810,
      "唱": 811,
      "唸": 812,
      "唼": 813,
      "唾": 814,
      "啄": 815,
      "商": 816,
      "啉": 817,
      "啊": 818,
      "問": 819,
      "啓": 820,
      "啞": 821,
      "啟": 822,
      "啡": 823,
      "啤": 824,
      "啥": 825,
      "啦": 826,
      "啪": 827,
      "啮": 828,
      "啱": 829,
      "啶": 830,
      "啸": 831,
      "啼": 832,
      "喀": 833,
      "喂": 834,
      "喃": 835,
      "善": 836,
      "喆": 837,
      "喇": 838,
      "喉": 839,
      "喊": 840,
      "喋": 841,
      "喔": 842,
      "喘": 843,
      "喙": 844,
      "喚": 845,
      "喜": 846,
      "喝": 847,
      "喦": 848,
      "喧": 849,
      "喪": 850,
      "喫": 851,
      "喬": 852,
      "單": 853,
      "喰": 854,
      "喱": 855,
      "喵": 856,
      "喷": 857,
      "喻": 858,
      "嗊": 859,
      "嗎": 860,
      "嗓": 861,
      "嗚": 862,
      "嗜": 863,
      "嗡": 864,
      "嗣": 865,
      "嗦": 866,
      "嗨": 867,
      "嗯": 868,
      "嗰": 869,
      "嗽": 870,
      "嘆": 871,
      "嘈": 872,
      "嘉": 873,
      "嘌": 874,
      "嘎": 875,
      "嘐": 876,
      "嘔": 877,
      "嘗": 878,
      "嘘": 879,
      "嘛": 880,
      "嘜": 881,
      "嘟": 882,
      "嘢": 883,
      "嘩": 884,
      "嘯": 885,
      "嘱": 886,
      "嘲": 887,
      "嘴": 888,
      "嘶": 889,
      "嘹": 890,
      "嘻": 891,
      "嘿": 892,
      "噁": 893,
      "噛": 894,
      "噜": 895,
      "噢": 896,
      "器": 897,
      "噩": 898,
      "噪": 899,
      "噬": 900,
      "噴": 901,
      "噸": 902,
      "噹": 903,
      "嚇": 904,
      "嚎": 905,
      "嚏": 906,
      "嚐": 907,
      "嚕": 908,
      "嚥": 909,
      "嚨": 910,
      "嚮": 911,
      "嚳": 912,
      "嚴": 913,
      "嚼": 914,
      "囂": 915,
      "囊": 916,
      "囍": 917,
      "囑": 918,
      "囓": 919,
      "囚": 920,
      "四": 921,
      "回": 922,
      "因": 923,
      "团": 924,
      "団": 925,
      "囪": 926,
      "园": 927,
      "困": 928,
      "囱": 929,
      "囲": 930,
      "図": 931,
      "围": 932,
      "固": 933,
      "国": 934,
      "图": 935,
      "圃": 936,
      "圆": 937,
      "圈": 938,
      "圉": 939,
      "國": 940,
      "圍": 941,
      "圏": 942,
      "園": 943,
      "圓": 944,
      "圖": 945,
      "團": 946,
      "圜": 947,
      "圞": 948,
      "土": 949,
      "圣": 950,
      "圧": 951,
      "在": 952,
      "圭": 953,
      "圮": 954,
      "地": 955,
      "圳": 956,
      "场": 957,
      "圻": 958,
      "圾": 959,
      "址": 960,
      "坂": 961,
      "均": 962,
      "坊": 963,
      "坍": 964,
      "坎": 965,
      "坏": 966,
      "坐": 967,
      "坑": 968,
      "块": 969,
      "坚": 970,
      "坛": 971,
      "坝": 972,
      "坞": 973,
      "坟": 974,
      "坠": 975,
      "坡": 976,
      "坤": 977,
      "坦": 978,
      "坧": 979,
      "坩": 980,
      "坪": 981,
      "坯": 982,
      "坳": 983,
      "垂": 984,
      "垃": 985,
      "垄": 986,
      "垈": 987,
      "型": 988,
      "垒": 989,
      "垛": 990,
      "垠": 991,
      "垢": 992,
      "垣": 993,
      "垦": 994,
      "垩": 995,
      "垫": 996,
      "垮": 997,
      "垿": 998,
      "埃": 999,
      "埋": 1000,
      "城": 1001,
      "埔": 1002,
      "域": 1003,
      "埠": 1004,
      "執": 1005,
      "培": 1006,
      "基": 1007,
      "埻": 1008,
      "埼": 1009,
      "堀": 1010,
      "堂": 1011,
      "堅": 1012,
      "堆": 1013,
      "堇": 1014,
      "堊": 1015,
      "堕": 1016,
      "堝": 1017,
      "堡": 1018,
      "堤": 1019,
      "堪": 1020,
      "堯": 1021,
      "堰": 1022,
      "報": 1023,
      "堲": 1024,
      "場": 1025,
      "堵": 1026,
      "塁": 1027,
      "塊": 1028,
      "塌": 1029,
      "塑": 1030,
      "塔": 1031,
      "塗": 1032,
      "塘": 1033,
      "塚": 1034,
      "塞": 1035,
      "塢": 1036,
      "塩": 1037,
      "填": 1038,
      "塵": 1039,
      "塹": 1040,
      "塾": 1041,
      "境": 1042,
      "墅": 1043,
      "墉": 1044,
      "墊": 1045,
      "墓": 1046,
      "増": 1047,
      "墙": 1048,
      "墜": 1049,
      "增": 1050,
      "墟": 1051,
      "墨": 1052,
      "墩": 1053,
      "墮": 1054,
      "墳": 1055,
      "壁": 1056,
      "壇": 1057,
      "壊": 1058,
      "壑": 1059,
      "壓": 1060,
      "壕": 1061,
      "壘": 1062,
      "壞": 1063,
      "壟": 1064,
      "壤": 1065,
      "壩": 1066,
      "士": 1067,
      "壬": 1068,
      "壮": 1069,
      "壯": 1070,
      "声": 1071,
      "壱": 1072,
      "売": 1073,
      "壳": 1074,
      "壶": 1075,
      "壹": 1076,
      "壺": 1077,
      "壽": 1078,
      "处": 1079,
      "备": 1080,
      "変": 1081,
      "复": 1082,
      "夏": 1083,
      "夕": 1084,
      "外": 1085,
      "夙": 1086,
      "多": 1087,
      "夜": 1088,
      "够": 1089,
      "夠": 1090,
      "夢": 1091,
      "夥": 1092,
      "大": 1093,
      "天": 1094,
      "太": 1095,
      "夫": 1096,
      "央": 1097,
      "失": 1098,
      "头": 1099,
      "夷": 1100,
      "夸": 1101,
      "夹": 1102,
      "夺": 1103,
      "夾": 1104,
      "奄": 1105,
      "奇": 1106,
      "奈": 1107,
      "奉": 1108,
      "奋": 1109,
      "奌": 1110,
      "奎": 1111,
      "奏": 1112,
      "奐": 1113,
      "契": 1114,
      "奔": 1115,
      "奕": 1116,
      "奖": 1117,
      "套": 1118,
      "奘": 1119,
      "奚": 1120,
      "奠": 1121,
      "奢": 1122,
      "奥": 1123,
      "奧": 1124,
      "奪": 1125,
      "奮": 1126,
      "女": 1127,
      "奴": 1128,
      "奶": 1129,
      "奸": 1130,
      "她": 1131,
      "好": 1132,
      "如": 1133,
      "妃": 1134,
      "妄": 1135,
      "妆": 1136,
      "妇": 1137,
      "妈": 1138,
      "妊": 1139,
      "妍": 1140,
      "妒": 1141,
      "妓": 1142,
      "妖": 1143,
      "妙": 1144,
      "妝": 1145,
      "妣": 1146,
      "妥": 1147,
      "妨": 1148,
      "妮": 1149,
      "妱": 1150,
      "妲": 1151,
      "妳": 1152,
      "妹": 1153,
      "妻": 1154,
      "姃": 1155,
      "姆": 1156,
      "姉": 1157,
      "姊": 1158,
      "始": 1159,
      "姍": 1160,
      "姐": 1161,
      "姑": 1162,
      "姓": 1163,
      "委": 1164,
      "姚": 1165,
      "姜": 1166,
      "姥": 1167,
      "姦": 1168,
      "姨": 1169,
      "姫": 1170,
      "姬": 1171,
      "姮": 1172,
      "姸": 1173,
      "姻": 1174,
      "姿": 1175,
      "威": 1176,
      "娃": 1177,
      "娄": 1178,
      "娅": 1179,
      "娇": 1180,
      "娎": 1181,
      "娑": 1182,
      "娘": 1183,
      "娛": 1184,
      "娜": 1185,
      "娟": 1186,
      "娠": 1187,
      "娣": 1188,
      "娥": 1189,
      "娩": 1190,
      "娱": 1191,
      "娴": 1192,
      "娶": 1193,
      "婁": 1194,
      "婆": 1195,
      "婉": 1196,
      "婐": 1197,
      "婚": 1198,
      "婦": 1199,
      "婧": 1200,
      "婪": 1201,
      "婭": 1202,
      "婴": 1203,
      "婷": 1204,
      "媒": 1205,
      "媚": 1206,
      "媛": 1207,
      "媞": 1208,
      "媧": 1209,
      "媲": 1210,
      "媽": 1211,
      "嫁": 1212,
      "嫉": 1213,
      "嫌": 1214,
      "嫗": 1215,
      "嫘": 1216,
      "嫙": 1217,
      "嫣": 1218,
      "嫦": 1219,
      "嫩": 1220,
      "嫫": 1221,
      "嬉": 1222,
      "嬌": 1223,
      "嬢": 1224,
      "嬤": 1225,
      "嬰": 1226,
      "嬴": 1227,
      "孀": 1228,
      "子": 1229,
      "孑": 1230,
      "孔": 1231,
      "孕": 1232,
      "孖": 1233,
      "字": 1234,
      "存": 1235,
      "孙": 1236,
      "孚": 1237,
      "孜": 1238,
      "孝": 1239,
      "孟": 1240,
      "孢": 1241,
      "季": 1242,
      "孤": 1243,
      "学": 1244,
      "孩": 1245,
      "孪": 1246,
      "孫": 1247,
      "孵": 1248,
      "學": 1249,
      "孺": 1250,
      "孻": 1251,
      "孽": 1252,
      "孿": 1253,
      "宁": 1254,
      "它": 1255,
      "宅": 1256,
      "宇": 1257,
      "守": 1258,
      "安": 1259,
      "宋": 1260,
      "完": 1261,
      "宏": 1262,
      "宕": 1263,
      "宗": 1264,
      "官": 1265,
      "宙": 1266,
      "定": 1267,
      "宛": 1268,
      "宜": 1269,
      "宝": 1270,
      "实": 1271,
      "実": 1272,
      "宠": 1273,
      "审": 1274,
      "客": 1275,
      "宣": 1276,
      "室": 1277,
      "宥": 1278,
      "宦": 1279,
      "宪": 1280,
      "宫": 1281,
      "宮": 1282,
      "宰": 1283,
      "害": 1284,
      "宴": 1285,
      "宵": 1286,
      "家": 1287,
      "容": 1288,
      "宽": 1289,
      "宾": 1290,
      "宿": 1291,
      "寂": 1292,
      "寄": 1293,
      "寅": 1294,
      "密": 1295,
      "寇": 1296,
      "富": 1297,
      "寒": 1298,
      "寓": 1299,
      "寛": 1300,
      "寝": 1301,
      "寞": 1302,
      "察": 1303,
      "寡": 1304,
      "寢": 1305,
      "實": 1306,
      "寧": 1307,
      "寨": 1308,
      "審": 1309,
      "寫": 1310,
      "寬": 1311,
      "寰": 1312,
      "寳": 1313,
      "寵": 1314,
      "寶": 1315,
      "寸": 1316,
      "对": 1317,
      "寺": 1318,
      "寻": 1319,
      "导": 1320,
      "対": 1321,
      "寿": 1322,
      "封": 1323,
      "専": 1324,
      "射": 1325,
      "将": 1326,
      "將": 1327,
      "專": 1328,
      "尉": 1329,
      "尊": 1330,
      "尋": 1331,
      "對": 1332,
      "導": 1333,
      "小": 1334,
      "少": 1335,
      "尔": 1336,
      "尖": 1337,
      "尘": 1338,
      "尙": 1339,
      "尚": 1340,
      "尝": 1341,
      "尤": 1342,
      "尧": 1343,
      "尪": 1344,
      "尬": 1345,
      "就": 1346,
      "尴": 1347,
      "尷": 1348,
      "尸": 1349,
      "尹": 1350,
      "尺": 1351,
      "尻": 1352,
      "尼": 1353,
      "尽": 1354,
      "尾": 1355,
      "尿": 1356,
      "局": 1357,
      "屁": 1358,
      "层": 1359,
      "屄": 1360,
      "居": 1361,
      "屆": 1362,
      "屈": 1363,
      "届": 1364,
      "屋": 1365,
      "屍": 1366,
      "屎": 1367,
      "屏": 1368,
      "屑": 1369,
      "展": 1370,
      "屜": 1371,
      "属": 1372,
      "屠": 1373,
      "屢": 1374,
      "層": 1375,
      "履": 1376,
      "屬": 1377,
      "屭": 1378,
      "屯": 1379,
      "山": 1380,
      "屿": 1381,
      "岁": 1382,
      "岐": 1383,
      "岑": 1384,
      "岔": 1385,
      "岗": 1386,
      "岘": 1387,
      "岛": 1388,
      "岡": 1389,
      "岩": 1390,
      "岬": 1391,
      "岭": 1392,
      "岱": 1393,
      "岳": 1394,
      "岷": 1395,
      "岸": 1396,
      "峇": 1397,
      "峒": 1398,
      "峙": 1399,
      "峠": 1400,
      "峡": 1401,
      "峦": 1402,
      "峭": 1403,
      "峯": 1404,
      "峰": 1405,
      "峴": 1406,
      "島": 1407,
      "峻": 1408,
      "峽": 1409,
      "崇": 1410,
      "崎": 1411,
      "崑": 1412,
      "崔": 1413,
      "崖": 1414,
      "崗": 1415,
      "崙": 1416,
      "崛": 1417,
      "崧": 1418,
      "崩": 1419,
      "崭": 1420,
      "崴": 1421,
      "崽": 1422,
      "嵌": 1423,
      "嵐": 1424,
      "嵩": 1425,
      "嵬": 1426,
      "嶄": 1427,
      "嶋": 1428,
      "嶭": 1429,
      "嶺": 1430,
      "嶼": 1431,
      "嶽": 1432,
      "巅": 1433,
      "巌": 1434,
      "巔": 1435,
      "巖": 1436,
      "川": 1437,
      "州": 1438,
      "巡": 1439,
      "巢": 1440,
      "工": 1441,
      "左": 1442,
      "巧": 1443,
      "巨": 1444,
      "巩": 1445,
      "巫": 1446,
      "差": 1447,
      "己": 1448,
      "已": 1449,
      "巳": 1450,
      "巴": 1451,
      "巷": 1452,
      "巻": 1453,
      "巾": 1454,
      "币": 1455,
      "市": 1456,
      "布": 1457,
      "帅": 1458,
      "帆": 1459,
      "师": 1460,
      "希": 1461,
      "帐": 1462,
      "帕": 1463,
      "帖": 1464,
      "帘": 1465,
      "帚": 1466,
      "帛": 1467,
      "帜": 1468,
      "帝": 1469,
      "帥": 1470,
      "带": 1471,
      "帧": 1472,
      "師": 1473,
      "席": 1474,
      "帮": 1475,
      "帯": 1476,
      "帰": 1477,
      "帳": 1478,
      "帶": 1479,
      "帷": 1480,
      "常": 1481,
      "帼": 1482,
      "帽": 1483,
      "幀": 1484,
      "幂": 1485,
      "幅": 1486,
      "幌": 1487,
      "幔": 1488,
      "幕": 1489,
      "幗": 1490,
      "幘": 1491,
      "幟": 1492,
      "幡": 1493,
      "幢": 1494,
      "幣": 1495,
      "幪": 1496,
      "幫": 1497,
      "幯": 1498,
      "干": 1499,
      "平": 1500,
      "年": 1501,
      "并": 1502,
      "幸": 1503,
      "幹": 1504,
      "幺": 1505,
      "幻": 1506,
      "幼": 1507,
      "幽": 1508,
      "幾": 1509,
      "广": 1510,
      "庁": 1511,
      "広": 1512,
      "庄": 1513,
      "庆": 1514,
      "庇": 1515,
      "床": 1516,
      "序": 1517,
      "庐": 1518,
      "库": 1519,
      "应": 1520,
      "底": 1521,
      "店": 1522,
      "庙": 1523,
      "庚": 1524,
      "府": 1525,
      "庞": 1526,
      "废": 1527,
      "庠": 1528,
      "度": 1529,
      "座": 1530,
      "庫": 1531,
      "庭": 1532,
      "康": 1533,
      "庸": 1534,
      "廁": 1535,
      "廂": 1536,
      "廃": 1537,
      "廄": 1538,
      "廈": 1539,
      "廉": 1540,
      "廊": 1541,
      "廓": 1542,
      "廖": 1543,
      "廚": 1544,
      "廟": 1545,
      "廠": 1546,
      "廢": 1547,
      "廣": 1548,
      "廬": 1549,
      "廳": 1550,
      "延": 1551,
      "廷": 1552,
      "廸": 1553,
      "建": 1554,
      "廻": 1555,
      "廼": 1556,
      "廿": 1557,
      "开": 1558,
      "弁": 1559,
      "异": 1560,
      "弃": 1561,
      "弄": 1562,
      "弈": 1563,
      "弊": 1564,
      "式": 1565,
      "弐": 1566,
      "弓": 1567,
      "弔": 1568,
      "引": 1569,
      "弖": 1570,
      "弗": 1571,
      "弘": 1572,
      "弛": 1573,
      "弟": 1574,
      "张": 1575,
      "弥": 1576,
      "弦": 1577,
      "弧": 1578,
      "弯": 1579,
      "弱": 1580,
      "張": 1581,
      "強": 1582,
      "弹": 1583,
      "强": 1584,
      "弼": 1585,
      "弾": 1586,
      "彈": 1587,
      "彊": 1588,
      "彌": 1589,
      "彎": 1590,
      "归": 1591,
      "当": 1592,
      "录": 1593,
      "彖": 1594,
      "彗": 1595,
      "彘": 1596,
      "彙": 1597,
      "彝": 1598,
      "彞": 1599,
      "形": 1600,
      "彤": 1601,
      "彥": 1602,
      "彦": 1603,
      "彧": 1604,
      "彩": 1605,
      "彪": 1606,
      "彬": 1607,
      "彭": 1608,
      "彰": 1609,
      "影": 1610,
      "彷": 1611,
      "彸": 1612,
      "役": 1613,
      "彻": 1614,
      "彼": 1615,
      "彿": 1616,
      "往": 1617,
      "征": 1618,
      "径": 1619,
      "待": 1620,
      "很": 1621,
      "徊": 1622,
      "律": 1623,
      "後": 1624,
      "徐": 1625,
      "徑": 1626,
      "徒": 1627,
      "従": 1628,
      "得": 1629,
      "徘": 1630,
      "徙": 1631,
      "從": 1632,
      "御": 1633,
      "復": 1634,
      "循": 1635,
      "微": 1636,
      "徳": 1637,
      "徵": 1638,
      "德": 1639,
      "徹": 1640,
      "徽": 1641,
      "心": 1642,
      "必": 1643,
      "忆": 1644,
      "忌": 1645,
      "忍": 1646,
      "忒": 1647,
      "志": 1648,
      "忘": 1649,
      "忙": 1650,
      "応": 1651,
      "忠": 1652,
      "忧": 1653,
      "快": 1654,
      "念": 1655,
      "忻": 1656,
      "忽": 1657,
      "怀": 1658,
      "态": 1659,
      "怎": 1660,
      "怒": 1661,
      "怔": 1662,
      "怕": 1663,
      "怖": 1664,
      "怚": 1665,
      "怜": 1666,
      "思": 1667,
      "怡": 1668,
      "急": 1669,
      "怦": 1670,
      "性": 1671,
      "怨": 1672,
      "怪": 1673,
      "怯": 1674,
      "怳": 1675,
      "总": 1676,
      "恆": 1677,
      "恋": 1678,
      "恐": 1679,
      "恒": 1680,
      "恓": 1681,
      "恕": 1682,
      "恛": 1683,
      "恢": 1684,
      "恤": 1685,
      "恥": 1686,
      "恨": 1687,
      "恩": 1688,
      "恭": 1689,
      "息": 1690,
      "恰": 1691,
      "恳": 1692,
      "恵": 1693,
      "恶": 1694,
      "恺": 1695,
      "恼": 1696,
      "恽": 1697,
      "悄": 1698,
      "悅": 1699,
      "悉": 1700,
      "悌": 1701,
      "悍": 1702,
      "悔": 1703,
      "悖": 1704,
      "悚": 1705,
      "悟": 1706,
      "悠": 1707,
      "患": 1708,
      "悦": 1709,
      "您": 1710,
      "悪": 1711,
      "悬": 1712,
      "悯": 1713,
      "悲": 1714,
      "悵": 1715,
      "悶": 1716,
      "悼": 1717,
      "情": 1718,
      "惊": 1719,
      "惎": 1720,
      "惏": 1721,
      "惑": 1722,
      "惕": 1723,
      "惘": 1724,
      "惜": 1725,
      "惟": 1726,
      "惠": 1727,
      "惡": 1728,
      "惣": 1729,
      "惧": 1730,
      "惨": 1731,
      "惩": 1732,
      "惯": 1733,
      "惰": 1734,
      "惱": 1735,
      "惲": 1736,
      "想": 1737,
      "惶": 1738,
      "惹": 1739,
      "愁": 1740,
      "愈": 1741,
      "愉": 1742,
      "愍": 1743,
      "愎": 1744,
      "意": 1745,
      "愚": 1746,
      "愛": 1747,
      "愜": 1748,
      "感": 1749,
      "愤": 1750,
      "愧": 1751,
      "愴": 1752,
      "愷": 1753,
      "愿": 1754,
      "慄": 1755,
      "慆": 1756,
      "慈": 1757,
      "態": 1758,
      "慌": 1759,
      "慎": 1760,
      "慑": 1761,
      "慕": 1762,
      "慘": 1763,
      "慢": 1764,
      "慣": 1765,
      "慥": 1766,
      "慧": 1767,
      "慨": 1768,
      "慮": 1769,
      "慰": 1770,
      "慱": 1771,
      "慶": 1772,
      "慷": 1773,
      "慾": 1774,
      "憂": 1775,
      "憊": 1776,
      "憎": 1777,
      "憐": 1778,
      "憑": 1779,
      "憔": 1780,
      "憖": 1781,
      "憤": 1782,
      "憧": 1783,
      "憨": 1784,
      "憩": 1785,
      "憫": 1786,
      "憬": 1787,
      "憲": 1788,
      "憶": 1789,
      "憺": 1790,
      "憾": 1791,
      "懂": 1792,
      "懇": 1793,
      "懈": 1794,
      "應": 1795,
      "懋": 1796,
      "懌": 1797,
      "懍": 1798,
      "懐": 1799,
      "懒": 1800,
      "懮": 1801,
      "懰": 1802,
      "懲": 1803,
      "懶": 1804,
      "懷": 1805,
      "懸": 1806,
      "懺": 1807,
      "懼": 1808,
      "懾": 1809,
      "懿": 1810,
      "戀": 1811,
      "戇": 1812,
      "戈": 1813,
      "戊": 1814,
      "戌": 1815,
      "戍": 1816,
      "戎": 1817,
      "戏": 1818,
      "成": 1819,
      "我": 1820,
      "戒": 1821,
      "或": 1822,
      "战": 1823,
      "戚": 1824,
      "戛": 1825,
      "戟": 1826,
      "戡": 1827,
      "戦": 1828,
      "截": 1829,
      "戮": 1830,
      "戯": 1831,
      "戰": 1832,
      "戲": 1833,
      "戳": 1834,
      "戴": 1835,
      "戶": 1836,
      "户": 1837,
      "戸": 1838,
      "房": 1839,
      "所": 1840,
      "扁": 1841,
      "扇": 1842,
      "扈": 1843,
      "扉": 1844,
      "手": 1845,
      "才": 1846,
      "扎": 1847,
      "扑": 1848,
      "扒": 1849,
      "打": 1850,
      "扔": 1851,
      "払": 1852,
      "托": 1853,
      "扢": 1854,
      "扣": 1855,
      "执": 1856,
      "扩": 1857,
      "扫": 1858,
      "扬": 1859,
      "扭": 1860,
      "扮": 1861,
      "扯": 1862,
      "扰": 1863,
      "扳": 1864,
      "扶": 1865,
      "批": 1866,
      "扼": 1867,
      "找": 1868,
      "承": 1869,
      "技": 1870,
      "抄": 1871,
      "抆": 1872,
      "抉": 1873,
      "把": 1874,
      "抑": 1875,
      "抒": 1876,
      "抓": 1877,
      "投": 1878,
      "抖": 1879,
      "抗": 1880,
      "折": 1881,
      "抚": 1882,
      "抛": 1883,
      "抜": 1884,
      "択": 1885,
      "抢": 1886,
      "护": 1887,
      "报": 1888,
      "抨": 1889,
      "披": 1890,
      "抬": 1891,
      "抱": 1892,
      "抵": 1893,
      "抹": 1894,
      "押": 1895,
      "抽": 1896,
      "担": 1897,
      "拆": 1898,
      "拇": 1899,
      "拉": 1900,
      "拊": 1901,
      "拋": 1902,
      "拌": 1903,
      "拍": 1904,
      "拏": 1905,
      "拐": 1906,
      "拒": 1907,
      "拓": 1908,
      "拔": 1909,
      "拖": 1910,
      "拘": 1911,
      "拙": 1912,
      "拚": 1913,
      "招": 1914,
      "拜": 1915,
      "拝": 1916,
      "拟": 1917,
      "拣": 1918,
      "拥": 1919,
      "拦": 1920,
      "拧": 1921,
      "拨": 1922,
      "择": 1923,
      "括": 1924,
      "拭": 1925,
      "拮": 1926,
      "拯": 1927,
      "拱": 1928,
      "拳": 1929,
      "拴": 1930,
      "拷": 1931,
      "拼": 1932,
      "拽": 1933,
      "拾": 1934,
      "拿": 1935,
      "持": 1936,
      "挂": 1937,
      "指": 1938,
      "按": 1939,
      "挍": 1940,
      "挑": 1941,
      "挖": 1942,
      "挙": 1943,
      "挚": 1944,
      "挛": 1945,
      "挝": 1946,
      "挞": 1947,
      "挠": 1948,
      "挡": 1949,
      "挣": 1950,
      "挤": 1951,
      "挥": 1952,
      "挪": 1953,
      "挫": 1954,
      "振": 1955,
      "挲": 1956,
      "挺": 1957,
      "挽": 1958,
      "捆": 1959,
      "捉": 1960,
      "捍": 1961,
      "捏": 1962,
      "捐": 1963,
      "捕": 1964,
      "捘": 1965,
      "捜": 1966,
      "捞": 1967,
      "损": 1968,
      "捡": 1969,
      "换": 1970,
      "捣": 1971,
      "捧": 1972,
      "捨": 1973,
      "捩": 1974,
      "据": 1975,
      "捱": 1976,
      "捲": 1977,
      "捷": 1978,
      "捻": 1979,
      "掀": 1980,
      "掃": 1981,
      "授": 1982,
      "掉": 1983,
      "掌": 1984,
      "掎": 1985,
      "掏": 1986,
      "排": 1987,
      "掘": 1988,
      "掙": 1989,
      "掛": 1990,
      "掟": 1991,
      "掠": 1992,
      "採": 1993,
      "探": 1994,
      "接": 1995,
      "控": 1996,
      "推": 1997,
      "掩": 1998,
      "措": 1999,
      "掷": 2000,
      "掺": 2001,
      "掾": 2002,
      "揃": 2003,
      "揆": 2004,
      "揉": 2005,
      "描": 2006,
      "提": 2007,
      "插": 2008,
      "揚": 2009,
      "換": 2010,
      "握": 2011,
      "揭": 2012,
      "揮": 2013,
      "援": 2014,
      "揵": 2015,
      "揸": 2016,
      "揺": 2017,
      "搁": 2018,
      "搅": 2019,
      "損": 2020,
      "搏": 2021,
      "搐": 2022,
      "搖": 2023,
      "搗": 2024,
      "搜": 2025,
      "搞": 2026,
      "搬": 2027,
      "搭": 2028,
      "搶": 2029,
      "携": 2030,
      "摂": 2031,
      "摄": 2032,
      "摆": 2033,
      "摇": 2034,
      "摊": 2035,
      "摔": 2036,
      "摘": 2037,
      "摧": 2038,
      "摩": 2039,
      "摯": 2040,
      "摸": 2041,
      "摺": 2042,
      "摻": 2043,
      "撃": 2044,
      "撇": 2045,
      "撈": 2046,
      "撊": 2047,
      "撐": 2048,
      "撑": 2049,
      "撒": 2050,
      "撓": 2051,
      "撕": 2052,
      "撞": 2053,
      "撤": 2054,
      "撥": 2055,
      "撫": 2056,
      "播": 2057,
      "撮": 2058,
      "撰": 2059,
      "撲": 2060,
      "撻": 2061,
      "撼": 2062,
      "撾": 2063,
      "撿": 2064,
      "擁": 2065,
      "擂": 2066,
      "擅": 2067,
      "擇": 2068,
      "擊": 2069,
      "擋": 2070,
      "操": 2071,
      "擎": 2072,
      "擔": 2073,
      "擘": 2074,
      "據": 2075,
      "擠": 2076,
      "擦": 2077,
      "擬": 2078,
      "擭": 2079,
      "擰": 2080,
      "擱": 2081,
      "擲": 2082,
      "擴": 2083,
      "擺": 2084,
      "擻": 2085,
      "擾": 2086,
      "攀": 2087,
      "攋": 2088,
      "攔": 2089,
      "攖": 2090,
      "攘": 2091,
      "攜": 2092,
      "攝": 2093,
      "攞": 2094,
      "攤": 2095,
      "攪": 2096,
      "支": 2097,
      "攲": 2098,
      "收": 2099,
      "攸": 2100,
      "改": 2101,
      "攻": 2102,
      "放": 2103,
      "政": 2104,
      "故": 2105,
      "效": 2106,
      "敌": 2107,
      "敏": 2108,
      "救": 2109,
      "敖": 2110,
      "敗": 2111,
      "敘": 2112,
      "教": 2113,
      "敛": 2114,
      "敝": 2115,
      "敞": 2116,
      "敢": 2117,
      "散": 2118,
      "敦": 2119,
      "敬": 2120,
      "数": 2121,
      "敲": 2122,
      "整": 2123,
      "敵": 2124,
      "敷": 2125,
      "數": 2126,
      "斂": 2127,
      "文": 2128,
      "斉": 2129,
      "斋": 2130,
      "斌": 2131,
      "斎": 2132,
      "斐": 2133,
      "斑": 2134,
      "斗": 2135,
      "料": 2136,
      "斜": 2137,
      "斡": 2138,
      "斤": 2139,
      "斥": 2140,
      "斧": 2141,
      "斩": 2142,
      "斬": 2143,
      "断": 2144,
      "斯": 2145,
      "新": 2146,
      "斷": 2147,
      "斸": 2148,
      "方": 2149,
      "於": 2150,
      "施": 2151,
      "旁": 2152,
      "旂": 2153,
      "旅": 2154,
      "旋": 2155,
      "族": 2156,
      "旗": 2157,
      "无": 2158,
      "既": 2159,
      "日": 2160,
      "旦": 2161,
      "旧": 2162,
      "旨": 2163,
      "早": 2164,
      "旬": 2165,
      "旭": 2166,
      "旱": 2167,
      "旴": 2168,
      "时": 2169,
      "旷": 2170,
      "旺": 2171,
      "旻": 2172,
      "旼": 2173,
      "昀": 2174,
      "昂": 2175,
      "昃": 2176,
      "昆": 2177,
      "昇": 2178,
      "昉": 2179,
      "昊": 2180,
      "昌": 2181,
      "明": 2182,
      "昏": 2183,
      "昑": 2184,
      "易": 2185,
      "昔": 2186,
      "昕": 2187,
      "星": 2188,
      "映": 2189,
      "春": 2190,
      "昧": 2191,
      "昨": 2192,
      "昪": 2193,
      "昭": 2194,
      "是": 2195,
      "昵": 2196,
      "昶": 2197,
      "昼": 2198,
      "显": 2199,
      "時": 2200,
      "晃": 2201,
      "晄": 2202,
      "晉": 2203,
      "晋": 2204,
      "晌": 2205,
      "晏": 2206,
      "晒": 2207,
      "晓": 2208,
      "晕": 2209,
      "晗": 2210,
      "晙": 2211,
      "晚": 2212,
      "晛": 2213,
      "晝": 2214,
      "晟": 2215,
      "晡": 2216,
      "晤": 2217,
      "晦": 2218,
      "晧": 2219,
      "晨": 2220,
      "晩": 2221,
      "晫": 2222,
      "普": 2223,
      "景": 2224,
      "晰": 2225,
      "晴": 2226,
      "晶": 2227,
      "晷": 2228,
      "智": 2229,
      "晾": 2230,
      "暂": 2231,
      "暄": 2232,
      "暈": 2233,
      "暉": 2234,
      "暎": 2235,
      "暐": 2236,
      "暑": 2237,
      "暖": 2238,
      "暗": 2239,
      "暢": 2240,
      "暦": 2241,
      "暧": 2242,
      "暨": 2243,
      "暫": 2244,
      "暮": 2245,
      "暱": 2246,
      "暴": 2247,
      "暹": 2248,
      "曆": 2249,
      "曇": 2250,
      "曉": 2251,
      "曖": 2252,
      "曙": 2253,
      "曜": 2254,
      "曝": 2255,
      "曠": 2256,
      "曦": 2257,
      "曬": 2258,
      "曰": 2259,
      "曲": 2260,
      "曳": 2261,
      "更": 2262,
      "曷": 2263,
      "書": 2264,
      "曹": 2265,
      "曼": 2266,
      "曽": 2267,
      "曾": 2268,
      "替": 2269,
      "最": 2270,
      "會": 2271,
      "月": 2272,
      "有": 2273,
      "朋": 2274,
      "服": 2275,
      "朓": 2276,
      "朔": 2277,
      "朗": 2278,
      "望": 2279,
      "朝": 2280,
      "期": 2281,
      "朦": 2282,
      "朧": 2283,
      "木": 2284,
      "未": 2285,
      "末": 2286,
      "本": 2287,
      "札": 2288,
      "术": 2289,
      "朱": 2290,
      "朴": 2291,
      "朵": 2292,
      "朶": 2293,
      "机": 2294,
      "朽": 2295,
      "朿": 2296,
      "杀": 2297,
      "杁": 2298,
      "杂": 2299,
      "权": 2300,
      "杆": 2301,
      "杉": 2302,
      "杌": 2303,
      "李": 2304,
      "杏": 2305,
      "材": 2306,
      "村": 2307,
      "杖": 2308,
      "杜": 2309,
      "束": 2310,
      "杠": 2311,
      "条": 2312,
      "来": 2313,
      "杨": 2314,
      "杭": 2315,
      "杯": 2316,
      "杰": 2317,
      "東": 2318,
      "杵": 2319,
      "杻": 2320,
      "松": 2321,
      "板": 2322,
      "极": 2323,
      "构": 2324,
      "析": 2325,
      "枕": 2326,
      "林": 2327,
      "枘": 2328,
      "枚": 2329,
      "果": 2330,
      "枝": 2331,
      "枢": 2332,
      "枣": 2333,
      "枪": 2334,
      "枫": 2335,
      "枭": 2336,
      "枯": 2337,
      "枳": 2338,
      "枴": 2339,
      "架": 2340,
      "枷": 2341,
      "枸": 2342,
      "柄": 2343,
      "柊": 2344,
      "柏": 2345,
      "某": 2346,
      "柑": 2347,
      "染": 2348,
      "柔": 2349,
      "柘": 2350,
      "柚": 2351,
      "柜": 2352,
      "柠": 2353,
      "查": 2354,
      "柩": 2355,
      "柬": 2356,
      "柯": 2357,
      "柱": 2358,
      "柳": 2359,
      "柴": 2360,
      "柵": 2361,
      "査": 2362,
      "柿": 2363,
      "栀": 2364,
      "栃": 2365,
      "栄": 2366,
      "栅": 2367,
      "标": 2368,
      "栈": 2369,
      "栋": 2370,
      "栏": 2371,
      "树": 2372,
      "栓": 2373,
      "栖": 2374,
      "栗": 2375,
      "栞": 2376,
      "校": 2377,
      "栢": 2378,
      "栩": 2379,
      "株": 2380,
      "样": 2381,
      "核": 2382,
      "根": 2383,
      "格": 2384,
      "栽": 2385,
      "桁": 2386,
      "桂": 2387,
      "桃": 2388,
      "桅": 2389,
      "框": 2390,
      "案": 2391,
      "桉": 2392,
      "桌": 2393,
      "桐": 2394,
      "桑": 2395,
      "桓": 2396,
      "桔": 2397,
      "桜": 2398,
      "桢": 2399,
      "档": 2400,
      "桥": 2401,
      "桦": 2402,
      "桨": 2403,
      "桩": 2404,
      "桶": 2405,
      "桿": 2406,
      "梁": 2407,
      "梅": 2408,
      "梓": 2409,
      "梗": 2410,
      "條": 2411,
      "梟": 2412,
      "梢": 2413,
      "梦": 2414,
      "梧": 2415,
      "梨": 2416,
      "梭": 2417,
      "梯": 2418,
      "械": 2419,
      "梳": 2420,
      "梵": 2421,
      "梼": 2422,
      "检": 2423,
      "棄": 2424,
      "棉": 2425,
      "棋": 2426,
      "棍": 2427,
      "棒": 2428,
      "棕": 2429,
      "棗": 2430,
      "棘": 2431,
      "棚": 2432,
      "棟": 2433,
      "棠": 2434,
      "棣": 2435,
      "棧": 2436,
      "棩": 2437,
      "森": 2438,
      "棱": 2439,
      "棲": 2440,
      "棵": 2441,
      "棺": 2442,
      "椅": 2443,
      "椋": 2444,
      "植": 2445,
      "椎": 2446,
      "椒": 2447,
      "椓": 2448,
      "検": 2449,
      "椭": 2450,
      "椰": 2451,
      "椿": 2452,
      "楂": 2453,
      "楊": 2454,
      "楓": 2455,
      "楔": 2456,
      "楚": 2457,
      "楞": 2458,
      "楠": 2459,
      "楨": 2460,
      "業": 2461,
      "極": 2462,
      "楷": 2463,
      "楼": 2464,
      "楽": 2465,
      "概": 2466,
      "榄": 2467,
      "榆": 2468,
      "榈": 2469,
      "榊": 2470,
      "榔": 2471,
      "榕": 2472,
      "榛": 2473,
      "榜": 2474,
      "榨": 2475,
      "榮": 2476,
      "榴": 2477,
      "榻": 2478,
      "槁": 2479,
      "構": 2480,
      "槌": 2481,
      "槍": 2482,
      "槐": 2483,
      "槓": 2484,
      "様": 2485,
      "槛": 2486,
      "槟": 2487,
      "槥": 2488,
      "槱": 2489,
      "槲": 2490,
      "槳": 2491,
      "槻": 2492,
      "槽": 2493,
      "槿": 2494,
      "樁": 2495,
      "樂": 2496,
      "樅": 2497,
      "樊": 2498,
      "樋": 2499,
      "樑": 2500,
      "樓": 2501,
      "標": 2502,
      "樞": 2503,
      "樟": 2504,
      "樠": 2505,
      "模": 2506,
      "樣": 2507,
      "横": 2508,
      "樫": 2509,
      "樱": 2510,
      "樴": 2511,
      "樵": 2512,
      "樸": 2513,
      "樹": 2514,
      "樺": 2515,
      "樽": 2516,
      "橄": 2517,
      "橇": 2518,
      "橈": 2519,
      "橋": 2520,
      "橏": 2521,
      "橘": 2522,
      "橙": 2523,
      "機": 2524,
      "橡": 2525,
      "橢": 2526,
      "橫": 2527,
      "橱": 2528,
      "檀": 2529,
      "檎": 2530,
      "檐": 2531,
      "檔": 2532,
      "檜": 2533,
      "檢": 2534,
      "檣": 2535,
      "檬": 2536,
      "檮": 2537,
      "檯": 2538,
      "檳": 2539,
      "檸": 2540,
      "櫃": 2541,
      "櫚": 2542,
      "櫛": 2543,
      "櫝": 2544,
      "櫥": 2545,
      "櫻": 2546,
      "欄": 2547,
      "權": 2548,
      "欒": 2549,
      "欖": 2550,
      "欙": 2551,
      "欠": 2552,
      "次": 2553,
      "欢": 2554,
      "欣": 2555,
      "欧": 2556,
      "欲": 2557,
      "欺": 2558,
      "欽": 2559,
      "款": 2560,
      "歃": 2561,
      "歇": 2562,
      "歈": 2563,
      "歉": 2564,
      "歌": 2565,
      "歐": 2566,
      "歓": 2567,
      "歟": 2568,
      "歡": 2569,
      "止": 2570,
      "正": 2571,
      "此": 2572,
      "步": 2573,
      "武": 2574,
      "歧": 2575,
      "歩": 2576,
      "歪": 2577,
      "歯": 2578,
      "歲": 2579,
      "歳": 2580,
      "歴": 2581,
      "歷": 2582,
      "歸": 2583,
      "死": 2584,
      "歼": 2585,
      "殊": 2586,
      "残": 2587,
      "殖": 2588,
      "殘": 2589,
      "殛": 2590,
      "殭": 2591,
      "殮": 2592,
      "殰": 2593,
      "殴": 2594,
      "段": 2595,
      "殷": 2596,
      "殺": 2597,
      "殻": 2598,
      "殼": 2599,
      "殿": 2600,
      "毀": 2601,
      "毁": 2602,
      "毅": 2603,
      "毆": 2604,
      "毋": 2605,
      "母": 2606,
      "毎": 2607,
      "每": 2608,
      "毒": 2609,
      "毓": 2610,
      "比": 2611,
      "毕": 2612,
      "毗": 2613,
      "毘": 2614,
      "毛": 2615,
      "毡": 2616,
      "毧": 2617,
      "毫": 2618,
      "毬": 2619,
      "毯": 2620,
      "毹": 2621,
      "氈": 2622,
      "氏": 2623,
      "氐": 2624,
      "民": 2625,
      "氓": 2626,
      "气": 2627,
      "氖": 2628,
      "気": 2629,
      "氘": 2630,
      "氙": 2631,
      "氛": 2632,
      "氟": 2633,
      "氢": 2634,
      "氣": 2635,
      "氦": 2636,
      "氧": 2637,
      "氨": 2638,
      "氩": 2639,
      "氪": 2640,
      "氫": 2641,
      "氬": 2642,
      "氮": 2643,
      "氯": 2644,
      "氰": 2645,
      "水": 2646,
      "氷": 2647,
      "永": 2648,
      "氾": 2649,
      "汀": 2650,
      "汁": 2651,
      "求": 2652,
      "汆": 2653,
      "汇": 2654,
      "汉": 2655,
      "汎": 2656,
      "汐": 2657,
      "汕": 2658,
      "汗": 2659,
      "汚": 2660,
      "汝": 2661,
      "汞": 2662,
      "江": 2663,
      "池": 2664,
      "污": 2665,
      "汤": 2666,
      "汨": 2667,
      "汪": 2668,
      "汰": 2669,
      "汲": 2670,
      "汶": 2671,
      "決": 2672,
      "汽": 2673,
      "汾": 2674,
      "沁": 2675,
      "沂": 2676,
      "沃": 2677,
      "沈": 2678,
      "沉": 2679,
      "沌": 2680,
      "沐": 2681,
      "沒": 2682,
      "沖": 2683,
      "沙": 2684,
      "沚": 2685,
      "沛": 2686,
      "沟": 2687,
      "没": 2688,
      "沢": 2689,
      "沥": 2690,
      "沦": 2691,
      "沧": 2692,
      "沪": 2693,
      "沫": 2694,
      "沮": 2695,
      "沱": 2696,
      "河": 2697,
      "沸": 2698,
      "油": 2699,
      "治": 2700,
      "沼": 2701,
      "沽": 2702,
      "沾": 2703,
      "沿": 2704,
      "況": 2705,
      "泂": 2706,
      "泄": 2707,
      "泉": 2708,
      "泊": 2709,
      "泌": 2710,
      "泓": 2711,
      "法": 2712,
      "泗": 2713,
      "泛": 2714,
      "泞": 2715,
      "泡": 2716,
      "波": 2717,
      "泣": 2718,
      "泥": 2719,
      "注": 2720,
      "泪": 2721,
      "泮": 2722,
      "泰": 2723,
      "泳": 2724,
      "泵": 2725,
      "泻": 2726,
      "泼": 2727,
      "泽": 2728,
      "洁": 2729,
      "洋": 2730,
      "洑": 2731,
      "洒": 2732,
      "洗": 2733,
      "洙": 2734,
      "洛": 2735,
      "洞": 2736,
      "津": 2737,
      "洩": 2738,
      "洪": 2739,
      "洱": 2740,
      "洲": 2741,
      "洶": 2742,
      "洸": 2743,
      "洺": 2744,
      "活": 2745,
      "洼": 2746,
      "洽": 2747,
      "派": 2748,
      "流": 2749,
      "浄": 2750,
      "浅": 2751,
      "浆": 2752,
      "浇": 2753,
      "浊": 2754,
      "测": 2755,
      "济": 2756,
      "浏": 2757,
      "浑": 2758,
      "浓": 2759,
      "浙": 2760,
      "浚": 2761,
      "浜": 2762,
      "浣": 2763,
      "浦": 2764,
      "浩": 2765,
      "浪": 2766,
      "浮": 2767,
      "浴": 2768,
      "海": 2769,
      "浸": 2770,
      "浹": 2771,
      "涂": 2772,
      "涅": 2773,
      "消": 2774,
      "涉": 2775,
      "涌": 2776,
      "涎": 2777,
      "涕": 2778,
      "涙": 2779,
      "涛": 2780,
      "涡": 2781,
      "涤": 2782,
      "润": 2783,
      "涨": 2784,
      "涩": 2785,
      "涪": 2786,
      "涯": 2787,
      "液": 2788,
      "涵": 2789,
      "涷": 2790,
      "涸": 2791,
      "涼": 2792,
      "淀": 2793,
      "淄": 2794,
      "淆": 2795,
      "淇": 2796,
      "淋": 2797,
      "淌": 2798,
      "淏": 2799,
      "淑": 2800,
      "淒": 2801,
      "淖": 2802,
      "淘": 2803,
      "淚": 2804,
      "淞": 2805,
      "淡": 2806,
      "淨": 2807,
      "淪": 2808,
      "淫": 2809,
      "淬": 2810,
      "淮": 2811,
      "深": 2812,
      "淳": 2813,
      "淵": 2814,
      "混": 2815,
      "淸": 2816,
      "淹": 2817,
      "淺": 2818,
      "添": 2819,
      "淼": 2820,
      "清": 2821,
      "渇": 2822,
      "済": 2823,
      "渊": 2824,
      "渋": 2825,
      "渎": 2826,
      "渐": 2827,
      "渓": 2828,
      "渔": 2829,
      "渗": 2830,
      "渚": 2831,
      "減": 2832,
      "渝": 2833,
      "渠": 2834,
      "渡": 2835,
      "渣": 2836,
      "渤": 2837,
      "渥": 2838,
      "渦": 2839,
      "渨": 2840,
      "温": 2841,
      "測": 2842,
      "渭": 2843,
      "港": 2844,
      "渲": 2845,
      "渴": 2846,
      "游": 2847,
      "渺": 2848,
      "渾": 2849,
      "湄": 2850,
      "湊": 2851,
      "湍": 2852,
      "湖": 2853,
      "湘": 2854,
      "湛": 2855,
      "湜": 2856,
      "湦": 2857,
      "湧": 2858,
      "湯": 2859,
      "湾": 2860,
      "湿": 2861,
      "満": 2862,
      "溂": 2863,
      "溃": 2864,
      "溅": 2865,
      "溉": 2866,
      "溍": 2867,
      "溏": 2868,
      "源": 2869,
      "準": 2870,
      "溜": 2871,
      "溝": 2872,
      "溢": 2873,
      "溥": 2874,
      "溪": 2875,
      "溫": 2876,
      "溯": 2877,
      "溴": 2878,
      "溶": 2879,
      "溺": 2880,
      "滂": 2881,
      "滄": 2882,
      "滅": 2883,
      "滇": 2884,
      "滉": 2885,
      "滋": 2886,
      "滌": 2887,
      "滑": 2888,
      "滔": 2889,
      "滕": 2890,
      "滘": 2891,
      "滙": 2892,
      "滚": 2893,
      "滝": 2894,
      "滞": 2895,
      "满": 2896,
      "滤": 2897,
      "滥": 2898,
      "滨": 2899,
      "滩": 2900,
      "滯": 2901,
      "滲": 2902,
      "滴": 2903,
      "滷": 2904,
      "滾": 2905,
      "滿": 2906,
      "漁": 2907,
      "漂": 2908,
      "漆": 2909,
      "漉": 2910,
      "漏": 2911,
      "演": 2912,
      "漚": 2913,
      "漠": 2914,
      "漢": 2915,
      "漣": 2916,
      "漩": 2917,
      "漪": 2918,
      "漫": 2919,
      "漬": 2920,
      "漱": 2921,
      "漲": 2922,
      "漳": 2923,
      "漸": 2924,
      "漿": 2925,
      "潀": 2926,
      "潁": 2927,
      "潍": 2928,
      "潑": 2929,
      "潔": 2930,
      "潘": 2931,
      "潛": 2932,
      "潜": 2933,
      "潟": 2934,
      "潢": 2935,
      "潤": 2936,
      "潦": 2937,
      "潭": 2938,
      "潮": 2939,
      "潰": 2940,
      "潺": 2941,
      "潼": 2942,
      "潾": 2943,
      "澀": 2944,
      "澄": 2945,
      "澆": 2946,
      "澇": 2947,
      "澈": 2948,
      "澎": 2949,
      "澗": 2950,
      "澜": 2951,
      "澡": 2952,
      "澤": 2953,
      "澪": 2954,
      "澮": 2955,
      "澱": 2956,
      "澳": 2957,
      "澼": 2958,
      "激": 2959,
      "濁": 2960,
      "濂": 2961,
      "濃": 2962,
      "濆": 2963,
      "濑": 2964,
      "濒": 2965,
      "濕": 2966,
      "濘": 2967,
      "濛": 2968,
      "濞": 2969,
      "濟": 2970,
      "濠": 2971,
      "濡": 2972,
      "濤": 2973,
      "濫": 2974,
      "濬": 2975,
      "濱": 2976,
      "濵": 2977,
      "濾": 2978,
      "瀆": 2979,
      "瀉": 2980,
      "瀋": 2981,
      "瀏": 2982,
      "瀑": 2983,
      "瀕": 2984,
      "瀚": 2985,
      "瀛": 2986,
      "瀝": 2987,
      "瀞": 2988,
      "瀧": 2989,
      "瀨": 2990,
      "瀬": 2991,
      "瀾": 2992,
      "灌": 2993,
      "灑": 2994,
      "灘": 2995,
      "灝": 2996,
      "灣": 2997,
      "火": 2998,
      "灭": 2999,
      "灯": 3000,
      "灰": 3001,
      "灵": 3002,
      "灶": 3003,
      "灸": 3004,
      "灼": 3005,
      "災": 3006,
      "灾": 3007,
      "灿": 3008,
      "炅": 3009,
      "炆": 3010,
      "炉": 3011,
      "炊": 3012,
      "炎": 3013,
      "炒": 3014,
      "炔": 3015,
      "炖": 3016,
      "炫": 3017,
      "炬": 3018,
      "炭": 3019,
      "炮": 3020,
      "炯": 3021,
      "炳": 3022,
      "炸": 3023,
      "点": 3024,
      "為": 3025,
      "炼": 3026,
      "炽": 3027,
      "烁": 3028,
      "烂": 3029,
      "烃": 3030,
      "烈": 3031,
      "烉": 3032,
      "烏": 3033,
      "烔": 3034,
      "烘": 3035,
      "烙": 3036,
      "烛": 3037,
      "烝": 3038,
      "烟": 3039,
      "烤": 3040,
      "烦": 3041,
      "烧": 3042,
      "烨": 3043,
      "烩": 3044,
      "烫": 3045,
      "烬": 3046,
      "热": 3047,
      "烯": 3048,
      "烴": 3049,
      "烷": 3050,
      "烹": 3051,
      "烽": 3052,
      "焉": 3053,
      "焊": 3054,
      "焓": 3055,
      "焕": 3056,
      "焗": 3057,
      "焙": 3058,
      "焚": 3059,
      "焞": 3060,
      "無": 3061,
      "焦": 3062,
      "焰": 3063,
      "焴": 3064,
      "然": 3065,
      "焼": 3066,
      "煁": 3067,
      "煅": 3068,
      "煇": 3069,
      "煉": 3070,
      "煌": 3071,
      "煎": 3072,
      "煐": 3073,
      "煒": 3074,
      "煙": 3075,
      "煜": 3076,
      "煤": 3077,
      "煥": 3078,
      "照": 3079,
      "煩": 3080,
      "煮": 3081,
      "煲": 3082,
      "煳": 3083,
      "煽": 3084,
      "熄": 3085,
      "熈": 3086,
      "熊": 3087,
      "熏": 3088,
      "熒": 3089,
      "熔": 3090,
      "熙": 3091,
      "熟": 3092,
      "熨": 3093,
      "熬": 3094,
      "熱": 3095,
      "熲": 3096,
      "熵": 3097,
      "熾": 3098,
      "燁": 3099,
      "燃": 3100,
      "燈": 3101,
      "燉": 3102,
      "燊": 3103,
      "燐": 3104,
      "燒": 3105,
      "燕": 3106,
      "燙": 3107,
      "營": 3108,
      "燥": 3109,
      "燦": 3110,
      "燧": 3111,
      "燨": 3112,
      "燭": 3113,
      "燮": 3114,
      "燼": 3115,
      "燾": 3116,
      "爆": 3117,
      "爇": 3118,
      "爍": 3119,
      "爐": 3120,
      "爓": 3121,
      "爛": 3122,
      "爝": 3123,
      "爪": 3124,
      "爬": 3125,
      "爭": 3126,
      "爰": 3127,
      "爱": 3128,
      "爲": 3129,
      "爵": 3130,
      "父": 3131,
      "爸": 3132,
      "爹": 3133,
      "爺": 3134,
      "爽": 3135,
      "爾": 3136,
      "牆": 3137,
      "片": 3138,
      "版": 3139,
      "牌": 3140,
      "牒": 3141,
      "牘": 3142,
      "牙": 3143,
      "牛": 3144,
      "牟": 3145,
      "牠": 3146,
      "牡": 3147,
      "牢": 3148,
      "牤": 3149,
      "牧": 3150,
      "物": 3151,
      "牯": 3152,
      "牲": 3153,
      "牵": 3154,
      "特": 3155,
      "牺": 3156,
      "牽": 3157,
      "犀": 3158,
      "犁": 3159,
      "犢": 3160,
      "犧": 3161,
      "犬": 3162,
      "犯": 3163,
      "状": 3164,
      "犹": 3165,
      "狀": 3166,
      "狂": 3167,
      "狄": 3168,
      "狐": 3169,
      "狒": 3170,
      "狓": 3171,
      "狗": 3172,
      "狙": 3173,
      "狠": 3174,
      "狡": 3175,
      "狩": 3176,
      "独": 3177,
      "狭": 3178,
      "狮": 3179,
      "狱": 3180,
      "狸": 3181,
      "狹": 3182,
      "狼": 3183,
      "猎": 3184,
      "猖": 3185,
      "猛": 3186,
      "猜": 3187,
      "猝": 3188,
      "猩": 3189,
      "猪": 3190,
      "猫": 3191,
      "猬": 3192,
      "献": 3193,
      "猲": 3194,
      "猴": 3195,
      "猶": 3196,
      "猷": 3197,
      "猾": 3198,
      "猿": 3199,
      "獄": 3200,
      "獅": 3201,
      "獎": 3202,
      "獒": 3203,
      "獗": 3204,
      "獚": 3205,
      "獢": 3206,
      "獣": 3207,
      "獨": 3208,
      "獭": 3209,
      "獲": 3210,
      "獵": 3211,
      "獸": 3212,
      "獺": 3213,
      "獻": 3214,
      "獼": 3215,
      "玄": 3216,
      "率": 3217,
      "玉": 3218,
      "王": 3219,
      "玖": 3220,
      "玛": 3221,
      "玜": 3222,
      "玟": 3223,
      "玥": 3224,
      "玩": 3225,
      "玫": 3226,
      "玮": 3227,
      "环": 3228,
      "现": 3229,
      "玲": 3230,
      "玻": 3231,
      "珀": 3232,
      "珂": 3233,
      "珅": 3234,
      "珈": 3235,
      "珊": 3236,
      "珍": 3237,
      "珠": 3238,
      "珦": 3239,
      "珧": 3240,
      "珪": 3241,
      "班": 3242,
      "珮": 3243,
      "現": 3244,
      "球": 3245,
      "琅": 3246,
      "理": 3247,
      "琉": 3248,
      "琐": 3249,
      "琛": 3250,
      "琢": 3251,
      "琥": 3252,
      "琦": 3253,
      "琪": 3254,
      "琳": 3255,
      "琴": 3256,
      "琵": 3257,
      "琶": 3258,
      "琹": 3259,
      "琺": 3260,
      "琼": 3261,
      "琿": 3262,
      "瑈": 3263,
      "瑋": 3264,
      "瑕": 3265,
      "瑙": 3266,
      "瑚": 3267,
      "瑛": 3268,
      "瑜": 3269,
      "瑞": 3270,
      "瑟": 3271,
      "瑠": 3272,
      "瑣": 3273,
      "瑤": 3274,
      "瑩": 3275,
      "瑪": 3276,
      "瑯": 3277,
      "瑰": 3278,
      "瑶": 3279,
      "瑾": 3280,
      "璀": 3281,
      "璃": 3282,
      "璇": 3283,
      "璉": 3284,
      "璋": 3285,
      "璐": 3286,
      "璘": 3287,
      "璧": 3288,
      "璨": 3289,
      "環": 3290,
      "璵": 3291,
      "瓀": 3292,
      "瓊": 3293,
      "瓏": 3294,
      "瓒": 3295,
      "瓚": 3296,
      "瓜": 3297,
      "瓠": 3298,
      "瓢": 3299,
      "瓣": 3300,
      "瓦": 3301,
      "瓶": 3302,
      "瓷": 3303,
      "甄": 3304,
      "甌": 3305,
      "甕": 3306,
      "甘": 3307,
      "甚": 3308,
      "甜": 3309,
      "生": 3310,
      "產": 3311,
      "産": 3312,
      "甦": 3313,
      "用": 3314,
      "甪": 3315,
      "甫": 3316,
      "甯": 3317,
      "田": 3318,
      "由": 3319,
      "甲": 3320,
      "申": 3321,
      "电": 3322,
      "男": 3323,
      "甸": 3324,
      "町": 3325,
      "画": 3326,
      "甾": 3327,
      "畅": 3328,
      "界": 3329,
      "畏": 3330,
      "畑": 3331,
      "畔": 3332,
      "留": 3333,
      "畜": 3334,
      "畝": 3335,
      "畠": 3336,
      "畢": 3337,
      "略": 3338,
      "番": 3339,
      "畫": 3340,
      "異": 3341,
      "畲": 3342,
      "畳": 3343,
      "畴": 3344,
      "當": 3345,
      "畸": 3346,
      "畿": 3347,
      "疃": 3348,
      "疆": 3349,
      "疇": 3350,
      "疊": 3351,
      "疋": 3352,
      "疏": 3353,
      "疐": 3354,
      "疑": 3355,
      "疔": 3356,
      "疗": 3357,
      "疝": 3358,
      "疟": 3359,
      "疣": 3360,
      "疤": 3361,
      "疫": 3362,
      "疮": 3363,
      "疯": 3364,
      "疲": 3365,
      "疵": 3366,
      "疸": 3367,
      "疹": 3368,
      "疼": 3369,
      "疽": 3370,
      "疾": 3371,
      "痂": 3372,
      "病": 3373,
      "症": 3374,
      "痉": 3375,
      "痍": 3376,
      "痒": 3377,
      "痔": 3378,
      "痕": 3379,
      "痘": 3380,
      "痛": 3381,
      "痞": 3382,
      "痤": 3383,
      "痧": 3384,
      "痪": 3385,
      "痫": 3386,
      "痰": 3387,
      "痳": 3388,
      "痴": 3389,
      "痹": 3390,
      "痺": 3391,
      "瘀": 3392,
      "瘋": 3393,
      "瘍": 3394,
      "瘓": 3395,
      "瘖": 3396,
      "瘙": 3397,
      "瘟": 3398,
      "瘠": 3399,
      "瘡": 3400,
      "瘢": 3401,
      "瘤": 3402,
      "瘥": 3403,
      "瘦": 3404,
      "瘧": 3405,
      "瘫": 3406,
      "瘰": 3407,
      "瘴": 3408,
      "瘸": 3409,
      "瘼": 3410,
      "瘾": 3411,
      "療": 3412,
      "癆": 3413,
      "癇": 3414,
      "癌": 3415,
      "癒": 3416,
      "癖": 3417,
      "癡": 3418,
      "癢": 3419,
      "癫": 3420,
      "癮": 3421,
      "癰": 3422,
      "癱": 3423,
      "癲": 3424,
      "癸": 3425,
      "発": 3426,
      "登": 3427,
      "發": 3428,
      "白": 3429,
      "百": 3430,
      "皂": 3431,
      "的": 3432,
      "皆": 3433,
      "皇": 3434,
      "皈": 3435,
      "皋": 3436,
      "皎": 3437,
      "皐": 3438,
      "皓": 3439,
      "皕": 3440,
      "皙": 3441,
      "皚": 3442,
      "皞": 3443,
      "皦": 3444,
      "皮": 3445,
      "皰": 3446,
      "皱": 3447,
      "皺": 3448,
      "皿": 3449,
      "盃": 3450,
      "盅": 3451,
      "盆": 3452,
      "盈": 3453,
      "益": 3454,
      "盎": 3455,
      "盏": 3456,
      "盐": 3457,
      "监": 3458,
      "盒": 3459,
      "盔": 3460,
      "盖": 3461,
      "盗": 3462,
      "盘": 3463,
      "盛": 3464,
      "盜": 3465,
      "盞": 3466,
      "盟": 3467,
      "盡": 3468,
      "監": 3469,
      "盤": 3470,
      "盥": 3471,
      "盦": 3472,
      "盧": 3473,
      "盪": 3474,
      "目": 3475,
      "盲": 3476,
      "直": 3477,
      "相": 3478,
      "盼": 3479,
      "盾": 3480,
      "省": 3481,
      "眇": 3482,
      "眉": 3483,
      "看": 3484,
      "県": 3485,
      "眞": 3486,
      "真": 3487,
      "眠": 3488,
      "眨": 3489,
      "眩": 3490,
      "眷": 3491,
      "眸": 3492,
      "眺": 3493,
      "眼": 3494,
      "眾": 3495,
      "着": 3496,
      "睐": 3497,
      "睛": 3498,
      "睜": 3499,
      "睞": 3500,
      "睡": 3501,
      "督": 3502,
      "睦": 3503,
      "睫": 3504,
      "睹": 3505,
      "睽": 3506,
      "睾": 3507,
      "睿": 3508,
      "瞄": 3509,
      "瞎": 3510,
      "瞑": 3511,
      "瞒": 3512,
      "瞥": 3513,
      "瞩": 3514,
      "瞬": 3515,
      "瞭": 3516,
      "瞰": 3517,
      "瞳": 3518,
      "瞻": 3519,
      "瞿": 3520,
      "矇": 3521,
      "矛": 3522,
      "矟": 3523,
      "矢": 3524,
      "矣": 3525,
      "知": 3526,
      "矩": 3527,
      "矫": 3528,
      "短": 3529,
      "矮": 3530,
      "矯": 3531,
      "石": 3532,
      "矶": 3533,
      "矽": 3534,
      "矿": 3535,
      "码": 3536,
      "砂": 3537,
      "砄": 3538,
      "砌": 3539,
      "砍": 3540,
      "研": 3541,
      "砕": 3542,
      "砖": 3543,
      "砚": 3544,
      "砦": 3545,
      "砲": 3546,
      "破": 3547,
      "砵": 3548,
      "砷": 3549,
      "砸": 3550,
      "砺": 3551,
      "砾": 3552,
      "础": 3553,
      "硅": 3554,
      "硒": 3555,
      "硕": 3556,
      "硝": 3557,
      "硫": 3558,
      "硬": 3559,
      "确": 3560,
      "硯": 3561,
      "硼": 3562,
      "碌": 3563,
      "碍": 3564,
      "碎": 3565,
      "碑": 3566,
      "碗": 3567,
      "碘": 3568,
      "碚": 3569,
      "碟": 3570,
      "碧": 3571,
      "碩": 3572,
      "碰": 3573,
      "碱": 3574,
      "碲": 3575,
      "碳": 3576,
      "確": 3577,
      "碼": 3578,
      "碾": 3579,
      "磁": 3580,
      "磅": 3581,
      "磊": 3582,
      "磋": 3583,
      "磐": 3584,
      "磚": 3585,
      "磛": 3586,
      "磨": 3587,
      "磯": 3588,
      "磷": 3589,
      "磺": 3590,
      "磻": 3591,
      "礁": 3592,
      "礎": 3593,
      "礙": 3594,
      "礤": 3595,
      "礦": 3596,
      "礫": 3597,
      "礬": 3598,
      "示": 3599,
      "礼": 3600,
      "礽": 3601,
      "社": 3602,
      "祀": 3603,
      "祁": 3604,
      "祂": 3605,
      "祇": 3606,
      "祈": 3607,
      "祉": 3608,
      "祐": 3609,
      "祕": 3610,
      "祖": 3611,
      "祘": 3612,
      "祚": 3613,
      "祜": 3614,
      "祝": 3615,
      "神": 3616,
      "祟": 3617,
      "祠": 3618,
      "祥": 3619,
      "祦": 3620,
      "票": 3621,
      "祭": 3622,
      "祷": 3623,
      "祸": 3624,
      "祿": 3625,
      "禁": 3626,
      "禃": 3627,
      "禄": 3628,
      "禅": 3629,
      "禍": 3630,
      "禎": 3631,
      "福": 3632,
      "禑": 3633,
      "禔": 3634,
      "禛": 3635,
      "禦": 3636,
      "禧": 3637,
      "禩": 3638,
      "禪": 3639,
      "禮": 3640,
      "禯": 3641,
      "禰": 3642,
      "禱": 3643,
      "禹": 3644,
      "禺": 3645,
      "离": 3646,
      "禽": 3647,
      "禾": 3648,
      "禿": 3649,
      "秀": 3650,
      "私": 3651,
      "秃": 3652,
      "秉": 3653,
      "秋": 3654,
      "种": 3655,
      "科": 3656,
      "秒": 3657,
      "秕": 3658,
      "秘": 3659,
      "租": 3660,
      "秤": 3661,
      "秦": 3662,
      "秧": 3663,
      "秩": 3664,
      "积": 3665,
      "称": 3666,
      "秸": 3667,
      "移": 3668,
      "秽": 3669,
      "稀": 3670,
      "稅": 3671,
      "稈": 3672,
      "程": 3673,
      "稍": 3674,
      "税": 3675,
      "稔": 3676,
      "稚": 3677,
      "稜": 3678,
      "稠": 3679,
      "稣": 3680,
      "種": 3681,
      "稱": 3682,
      "稲": 3683,
      "稳": 3684,
      "稷": 3685,
      "稻": 3686,
      "稼": 3687,
      "稽": 3688,
      "稿": 3689,
      "穀": 3690,
      "穂": 3691,
      "穆": 3692,
      "穉": 3693,
      "穌": 3694,
      "積": 3695,
      "穎": 3696,
      "穗": 3697,
      "穢": 3698,
      "穩": 3699,
      "穫": 3700,
      "穴": 3701,
      "究": 3702,
      "穷": 3703,
      "穹": 3704,
      "空": 3705,
      "穿": 3706,
      "突": 3707,
      "窃": 3708,
      "窄": 3709,
      "窍": 3710,
      "窑": 3711,
      "窒": 3712,
      "窓": 3713,
      "窗": 3714,
      "窘": 3715,
      "窝": 3716,
      "窞": 3717,
      "窟": 3718,
      "窩": 3719,
      "窪": 3720,
      "窮": 3721,
      "窯": 3722,
      "窳": 3723,
      "窺": 3724,
      "窿": 3725,
      "竇": 3726,
      "竊": 3727,
      "立": 3728,
      "竑": 3729,
      "竖": 3730,
      "站": 3731,
      "竜": 3732,
      "竞": 3733,
      "竟": 3734,
      "章": 3735,
      "竣": 3736,
      "童": 3737,
      "竭": 3738,
      "端": 3739,
      "競": 3740,
      "竹": 3741,
      "竺": 3742,
      "竿": 3743,
      "笃": 3744,
      "笄": 3745,
      "笆": 3746,
      "笋": 3747,
      "笏": 3748,
      "笑": 3749,
      "笔": 3750,
      "笛": 3751,
      "笠": 3752,
      "符": 3753,
      "笨": 3754,
      "第": 3755,
      "笹": 3756,
      "笺": 3757,
      "笼": 3758,
      "筆": 3759,
      "等": 3760,
      "筋": 3761,
      "筍": 3762,
      "筏": 3763,
      "筑": 3764,
      "筒": 3765,
      "答": 3766,
      "策": 3767,
      "筛": 3768,
      "筝": 3769,
      "筱": 3770,
      "筵": 3771,
      "筷": 3772,
      "筹": 3773,
      "签": 3774,
      "简": 3775,
      "箋": 3776,
      "箍": 3777,
      "箏": 3778,
      "箔": 3779,
      "箕": 3780,
      "算": 3781,
      "管": 3782,
      "箭": 3783,
      "箱": 3784,
      "節": 3785,
      "範": 3786,
      "篇": 3787,
      "築": 3788,
      "篋": 3789,
      "篜": 3790,
      "篝": 3791,
      "篠": 3792,
      "篡": 3793,
      "篤": 3794,
      "篩": 3795,
      "篭": 3796,
      "篮": 3797,
      "篱": 3798,
      "篳": 3799,
      "篷": 3800,
      "簇": 3801,
      "簉": 3802,
      "簏": 3803,
      "簡": 3804,
      "簧": 3805,
      "簸": 3806,
      "簽": 3807,
      "簾": 3808,
      "簿": 3809,
      "籃": 3810,
      "籌": 3811,
      "籍": 3812,
      "籐": 3813,
      "籙": 3814,
      "籠": 3815,
      "籤": 3816,
      "籬": 3817,
      "籮": 3818,
      "籲": 3819,
      "米": 3820,
      "类": 3821,
      "籽": 3822,
      "粉": 3823,
      "粑": 3824,
      "粒": 3825,
      "粗": 3826,
      "粘": 3827,
      "粟": 3828,
      "粢": 3829,
      "粤": 3830,
      "粥": 3831,
      "粪": 3832,
      "粮": 3833,
      "粱": 3834,
      "粲": 3835,
      "粵": 3836,
      "粹": 3837,
      "粽": 3838,
      "精": 3839,
      "粿": 3840,
      "糅": 3841,
      "糊": 3842,
      "糍": 3843,
      "糕": 3844,
      "糖": 3845,
      "糙": 3846,
      "糜": 3847,
      "糞": 3848,
      "糟": 3849,
      "糠": 3850,
      "糧": 3851,
      "糨": 3852,
      "糯": 3853,
      "糰": 3854,
      "糸": 3855,
      "系": 3856,
      "糾": 3857,
      "紀": 3858,
      "約": 3859,
      "紅": 3860,
      "紈": 3861,
      "紉": 3862,
      "紊": 3863,
      "紋": 3864,
      "納": 3865,
      "紐": 3866,
      "紓": 3867,
      "純": 3868,
      "紗": 3869,
      "紘": 3870,
      "紙": 3871,
      "級": 3872,
      "紛": 3873,
      "素": 3874,
      "紡": 3875,
      "索": 3876,
      "紧": 3877,
      "紫": 3878,
      "紮": 3879,
      "累": 3880,
      "細": 3881,
      "紳": 3882,
      "紹": 3883,
      "紺": 3884,
      "絀": 3885,
      "終": 3886,
      "組": 3887,
      "絆": 3888,
      "経": 3889,
      "結": 3890,
      "絕": 3891,
      "絜": 3892,
      "絞": 3893,
      "絡": 3894,
      "給": 3895,
      "絨": 3896,
      "絮": 3897,
      "統": 3898,
      "絲": 3899,
      "絵": 3900,
      "絶": 3901,
      "絹": 3902,
      "綁": 3903,
      "經": 3904,
      "継": 3905,
      "続": 3906,
      "綜": 3907,
      "綠": 3908,
      "綢": 3909,
      "綫": 3910,
      "綬": 3911,
      "維": 3912,
      "綱": 3913,
      "網": 3914,
      "綴": 3915,
      "綸": 3916,
      "綺": 3917,
      "綻": 3918,
      "綽": 3919,
      "綾": 3920,
      "綿": 3921,
      "緊": 3922,
      "緋": 3923,
      "総": 3924,
      "緑": 3925,
      "緒": 3926,
      "線": 3927,
      "緝": 3928,
      "緞": 3929,
      "締": 3930,
      "緣": 3931,
      "編": 3932,
      "緩": 3933,
      "緬": 3934,
      "緯": 3935,
      "練": 3936,
      "緻": 3937,
      "縁": 3938,
      "縄": 3939,
      "縈": 3940,
      "縛": 3941,
      "縝": 3942,
      "縡": 3943,
      "縣": 3944,
      "縫": 3945,
      "縮": 3946,
      "縱": 3947,
      "縷": 3948,
      "總": 3949,
      "績": 3950,
      "繁": 3951,
      "繃": 3952,
      "繄": 3953,
      "繆": 3954,
      "繇": 3955,
      "繋": 3956,
      "繒": 3957,
      "織": 3958,
      "繖": 3959,
      "繞": 3960,
      "繠": 3961,
      "繡": 3962,
      "繩": 3963,
      "繪": 3964,
      "繫": 3965,
      "繭": 3966,
      "繳": 3967,
      "繹": 3968,
      "繼": 3969,
      "纂": 3970,
      "纆": 3971,
      "續": 3972,
      "纏": 3973,
      "纓": 3974,
      "纖": 3975,
      "纜": 3976,
      "纠": 3977,
      "红": 3978,
      "纤": 3979,
      "约": 3980,
      "级": 3981,
      "纪": 3982,
      "纫": 3983,
      "纬": 3984,
      "纯": 3985,
      "纱": 3986,
      "纲": 3987,
      "纳": 3988,
      "纵": 3989,
      "纶": 3990,
      "纷": 3991,
      "纸": 3992,
      "纹": 3993,
      "纺": 3994,
      "纽": 3995,
      "纾": 3996,
      "线": 3997,
      "练": 3998,
      "组": 3999,
      "绅": 4000,
      "细": 4001,
      "织": 4002,
      "终": 4003,
      "绍": 4004,
      "绎": 4005,
      "经": 4006,
      "绑": 4007,
      "绒": 4008,
      "结": 4009,
      "绕": 4010,
      "绘": 4011,
      "给": 4012,
      "络": 4013,
      "绝": 4014,
      "绞": 4015,
      "统": 4016,
      "绢": 4017,
      "绣": 4018,
      "继": 4019,
      "绩": 4020,
      "绪": 4021,
      "续": 4022,
      "绯": 4023,
      "绰": 4024,
      "绳": 4025,
      "维": 4026,
      "绵": 4027,
      "绶": 4028,
      "绸": 4029,
      "综": 4030,
      "绿": 4031,
      "缀": 4032,
      "缅": 4033,
      "缆": 4034,
      "缇": 4035,
      "缉": 4036,
      "缎": 4037,
      "缓": 4038,
      "缔": 4039,
      "缕": 4040,
      "编": 4041,
      "缘": 4042,
      "缚": 4043,
      "缝": 4044,
      "缠": 4045,
      "缤": 4046,
      "缩": 4047,
      "缪": 4048,
      "缴": 4049,
      "缶": 4050,
      "缸": 4051,
      "缺": 4052,
      "缽": 4053,
      "罂": 4054,
      "罄": 4055,
      "罌": 4056,
      "罐": 4057,
      "网": 4058,
      "罔": 4059,
      "罕": 4060,
      "罗": 4061,
      "罚": 4062,
      "罠": 4063,
      "罢": 4064,
      "罩": 4065,
      "罪": 4066,
      "置": 4067,
      "罰": 4068,
      "署": 4069,
      "罳": 4070,
      "罵": 4071,
      "罷": 4072,
      "羅": 4073,
      "羊": 4074,
      "羌": 4075,
      "美": 4076,
      "羔": 4077,
      "羚": 4078,
      "羞": 4079,
      "羟": 4080,
      "羡": 4081,
      "群": 4082,
      "羥": 4083,
      "羧": 4084,
      "羨": 4085,
      "義": 4086,
      "羰": 4087,
      "羲": 4088,
      "羵": 4089,
      "羸": 4090,
      "羹": 4091,
      "羽": 4092,
      "羿": 4093,
      "翁": 4094,
      "翅": 4095,
      "翊": 4096,
      "翎": 4097,
      "習": 4098,
      "翔": 4099,
      "翘": 4100,
      "翠": 4101,
      "翡": 4102,
      "翩": 4103,
      "翮": 4104,
      "翰": 4105,
      "翹": 4106,
      "翻": 4107,
      "翼": 4108,
      "耀": 4109,
      "老": 4110,
      "考": 4111,
      "者": 4112,
      "耆": 4113,
      "而": 4114,
      "耍": 4115,
      "耐": 4116,
      "耕": 4117,
      "耗": 4118,
      "耙": 4119,
      "耦": 4120,
      "耳": 4121,
      "耶": 4122,
      "耷": 4123,
      "耸": 4124,
      "耻": 4125,
      "耿": 4126,
      "聆": 4127,
      "聊": 4128,
      "聋": 4129,
      "职": 4130,
      "联": 4131,
      "聖": 4132,
      "聘": 4133,
      "聚": 4134,
      "聞": 4135,
      "聪": 4136,
      "聯": 4137,
      "聰": 4138,
      "聲": 4139,
      "聳": 4140,
      "聴": 4141,
      "聶": 4142,
      "職": 4143,
      "聼": 4144,
      "聽": 4145,
      "聾": 4146,
      "肃": 4147,
      "肅": 4148,
      "肆": 4149,
      "肇": 4150,
      "肉": 4151,
      "肋": 4152,
      "肌": 4153,
      "肖": 4154,
      "肘": 4155,
      "肚": 4156,
      "肛": 4157,
      "肝": 4158,
      "肠": 4159,
      "股": 4160,
      "肢": 4161,
      "肤": 4162,
      "肥": 4163,
      "肩": 4164,
      "肪": 4165,
      "肮": 4166,
      "肯": 4167,
      "肱": 4168,
      "育": 4169,
      "肴": 4170,
      "肵": 4171,
      "肺": 4172,
      "肽": 4173,
      "肾": 4174,
      "肿": 4175,
      "胀": 4176,
      "胁": 4177,
      "胃": 4178,
      "胄": 4179,
      "胆": 4180,
      "背": 4181,
      "胎": 4182,
      "胖": 4183,
      "胚": 4184,
      "胜": 4185,
      "胞": 4186,
      "胠": 4187,
      "胡": 4188,
      "胤": 4189,
      "胫": 4190,
      "胭": 4191,
      "胯": 4192,
      "胰": 4193,
      "胱": 4194,
      "胳": 4195,
      "胶": 4196,
      "胸": 4197,
      "胺": 4198,
      "能": 4199,
      "脂": 4200,
      "脅": 4201,
      "脆": 4202,
      "脇": 4203,
      "脈": 4204,
      "脉": 4205,
      "脊": 4206,
      "脏": 4207,
      "脐": 4208,
      "脑": 4209,
      "脓": 4210,
      "脖": 4211,
      "脚": 4212,
      "脛": 4213,
      "脝": 4214,
      "脩": 4215,
      "脫": 4216,
      "脯": 4217,
      "脱": 4218,
      "脲": 4219,
      "脳": 4220,
      "脷": 4221,
      "脸": 4222,
      "脹": 4223,
      "脾": 4224,
      "腆": 4225,
      "腈": 4226,
      "腊": 4227,
      "腋": 4228,
      "腌": 4229,
      "腎": 4230,
      "腐": 4231,
      "腓": 4232,
      "腔": 4233,
      "腕": 4234,
      "腥": 4235,
      "腦": 4236,
      "腩": 4237,
      "腫": 4238,
      "腮": 4239,
      "腰": 4240,
      "腱": 4241,
      "腳": 4242,
      "腸": 4243,
      "腹": 4244,
      "腺": 4245,
      "腻": 4246,
      "腾": 4247,
      "腿": 4248,
      "膀": 4249,
      "膊": 4250,
      "膏": 4251,
      "膚": 4252,
      "膛": 4253,
      "膜": 4254,
      "膝": 4255,
      "膠": 4256,
      "膣": 4257,
      "膦": 4258,
      "膨": 4259,
      "膩": 4260,
      "膳": 4261,
      "膵": 4262,
      "膽": 4263,
      "膾": 4264,
      "膿": 4265,
      "臀": 4266,
      "臂": 4267,
      "臆": 4268,
      "臉": 4269,
      "臍": 4270,
      "臘": 4271,
      "臚": 4272,
      "臟": 4273,
      "臣": 4274,
      "臥": 4275,
      "臧": 4276,
      "臨": 4277,
      "自": 4278,
      "臭": 4279,
      "至": 4280,
      "致": 4281,
      "臺": 4282,
      "臼": 4283,
      "舀": 4284,
      "舅": 4285,
      "舆": 4286,
      "與": 4287,
      "興": 4288,
      "舉": 4289,
      "舊": 4290,
      "舌": 4291,
      "舍": 4292,
      "舎": 4293,
      "舒": 4294,
      "舔": 4295,
      "舖": 4296,
      "舗": 4297,
      "舜": 4298,
      "舞": 4299,
      "舟": 4300,
      "舨": 4301,
      "航": 4302,
      "般": 4303,
      "舭": 4304,
      "舰": 4305,
      "舱": 4306,
      "舵": 4307,
      "舶": 4308,
      "舷": 4309,
      "船": 4310,
      "艇": 4311,
      "艖": 4312,
      "艘": 4313,
      "艙": 4314,
      "艦": 4315,
      "艭": 4316,
      "艮": 4317,
      "良": 4318,
      "艰": 4319,
      "艱": 4320,
      "色": 4321,
      "艳": 4322,
      "艴": 4323,
      "艶": 4324,
      "艷": 4325,
      "艺": 4326,
      "艾": 4327,
      "节": 4328,
      "芊": 4329,
      "芋": 4330,
      "芎": 4331,
      "芒": 4332,
      "芙": 4333,
      "芜": 4334,
      "芝": 4335,
      "芤": 4336,
      "芥": 4337,
      "芦": 4338,
      "芫": 4339,
      "芬": 4340,
      "芭": 4341,
      "芯": 4342,
      "花": 4343,
      "芳": 4344,
      "芷": 4345,
      "芸": 4346,
      "芹": 4347,
      "芻": 4348,
      "芼": 4349,
      "芽": 4350,
      "芾": 4351,
      "苄": 4352,
      "苅": 4353,
      "苇": 4354,
      "苍": 4355,
      "苏": 4356,
      "苑": 4357,
      "苓": 4358,
      "苔": 4359,
      "苗": 4360,
      "苛": 4361,
      "苠": 4362,
      "苣": 4363,
      "若": 4364,
      "苦": 4365,
      "苫": 4366,
      "苯": 4367,
      "英": 4368,
      "苷": 4369,
      "苹": 4370,
      "苺": 4371,
      "茂": 4372,
      "范": 4373,
      "茄": 4374,
      "茅": 4375,
      "茉": 4376,
      "茎": 4377,
      "茜": 4378,
      "茢": 4379,
      "茧": 4380,
      "茨": 4381,
      "茫": 4382,
      "茱": 4383,
      "茲": 4384,
      "茴": 4385,
      "茵": 4386,
      "茶": 4387,
      "茸": 4388,
      "茹": 4389,
      "荀": 4390,
      "荃": 4391,
      "荆": 4392,
      "草": 4393,
      "荊": 4394,
      "荐": 4395,
      "荒": 4396,
      "荔": 4397,
      "荘": 4398,
      "荟": 4399,
      "荠": 4400,
      "荡": 4401,
      "荣": 4402,
      "荧": 4403,
      "荪": 4404,
      "荫": 4405,
      "药": 4406,
      "荳": 4407,
      "荷": 4408,
      "荸": 4409,
      "荻": 4410,
      "荼": 4411,
      "荽": 4412,
      "莆": 4413,
      "莉": 4414,
      "莊": 4415,
      "莎": 4416,
      "莓": 4417,
      "莖": 4418,
      "莘": 4419,
      "莞": 4420,
      "莪": 4421,
      "莫": 4422,
      "莱": 4423,
      "莲": 4424,
      "莳": 4425,
      "获": 4426,
      "莸": 4427,
      "莺": 4428,
      "莽": 4429,
      "菀": 4430,
      "菁": 4431,
      "菅": 4432,
      "菇": 4433,
      "菊": 4434,
      "菌": 4435,
      "菎": 4436,
      "菏": 4437,
      "菐": 4438,
      "菓": 4439,
      "菜": 4440,
      "菠": 4441,
      "菡": 4442,
      "菢": 4443,
      "菩": 4444,
      "華": 4445,
      "菱": 4446,
      "菲": 4447,
      "菶": 4448,
      "菸": 4449,
      "萃": 4450,
      "萄": 4451,
      "萊": 4452,
      "萌": 4453,
      "萍": 4454,
      "萎": 4455,
      "萝": 4456,
      "萤": 4457,
      "营": 4458,
      "萧": 4459,
      "萨": 4460,
      "萩": 4461,
      "萬": 4462,
      "萱": 4463,
      "萼": 4464,
      "落": 4465,
      "葉": 4466,
      "著": 4467,
      "葛": 4468,
      "葡": 4469,
      "董": 4470,
      "葦": 4471,
      "葫": 4472,
      "葬": 4473,
      "葱": 4474,
      "葵": 4475,
      "蒂": 4476,
      "蒋": 4477,
      "蒙": 4478,
      "蒜": 4479,
      "蒟": 4480,
      "蒲": 4481,
      "蒴": 4482,
      "蒸": 4483,
      "蒻": 4484,
      "蒼": 4485,
      "蒿": 4486,
      "蓀": 4487,
      "蓁": 4488,
      "蓄": 4489,
      "蓇": 4490,
      "蓉": 4491,
      "蓋": 4492,
      "蓖": 4493,
      "蓝": 4494,
      "蓟": 4495,
      "蓬": 4496,
      "蓮": 4497,
      "蔑": 4498,
      "蔓": 4499,
      "蔔": 4500,
      "蔗": 4501,
      "蔘": 4502,
      "蔚": 4503,
      "蔡": 4504,
      "蔣": 4505,
      "蔥": 4506,
      "蔦": 4507,
      "蔬": 4508,
      "蔭": 4509,
      "蔵": 4510,
      "蔷": 4511,
      "蔻": 4512,
      "蔽": 4513,
      "蕈": 4514,
      "蕉": 4515,
      "蕊": 4516,
      "蕎": 4517,
      "蕖": 4518,
      "蕤": 4519,
      "蕨": 4520,
      "蕩": 4521,
      "蕪": 4522,
      "蕭": 4523,
      "蕴": 4524,
      "蕾": 4525,
      "薄": 4526,
      "薇": 4527,
      "薈": 4528,
      "薊": 4529,
      "薑": 4530,
      "薔": 4531,
      "薗": 4532,
      "薙": 4533,
      "薛": 4534,
      "薦": 4535,
      "薩": 4536,
      "薪": 4537,
      "薫": 4538,
      "薬": 4539,
      "薯": 4540,
      "薰": 4541,
      "薷": 4542,
      "薺": 4543,
      "藁": 4544,
      "藉": 4545,
      "藍": 4546,
      "藏": 4547,
      "藓": 4548,
      "藝": 4549,
      "藟": 4550,
      "藤": 4551,
      "藥": 4552,
      "藩": 4553,
      "藹": 4554,
      "藻": 4555,
      "藿": 4556,
      "蘆": 4557,
      "蘇": 4558,
      "蘊": 4559,
      "蘋": 4560,
      "蘑": 4561,
      "蘚": 4562,
      "蘭": 4563,
      "蘸": 4564,
      "蘼": 4565,
      "蘿": 4566,
      "虎": 4567,
      "虏": 4568,
      "虐": 4569,
      "虑": 4570,
      "虔": 4571,
      "處": 4572,
      "虚": 4573,
      "虛": 4574,
      "虜": 4575,
      "號": 4576,
      "虣": 4577,
      "虧": 4578,
      "虫": 4579,
      "虯": 4580,
      "虱": 4581,
      "虹": 4582,
      "虽": 4583,
      "虾": 4584,
      "蚀": 4585,
      "蚁": 4586,
      "蚂": 4587,
      "蚊": 4588,
      "蚌": 4589,
      "蚕": 4590,
      "蚜": 4591,
      "蚝": 4592,
      "蚤": 4593,
      "蚩": 4594,
      "蚱": 4595,
      "蚵": 4596,
      "蚺": 4597,
      "蛀": 4598,
      "蛇": 4599,
      "蛉": 4600,
      "蛋": 4601,
      "蛍": 4602,
      "蛎": 4603,
      "蛙": 4604,
      "蛛": 4605,
      "蛟": 4606,
      "蛩": 4607,
      "蛮": 4608,
      "蛱": 4609,
      "蛹": 4610,
      "蛾": 4611,
      "蜀": 4612,
      "蜂": 4613,
      "蜃": 4614,
      "蜊": 4615,
      "蜍": 4616,
      "蜒": 4617,
      "蜓": 4618,
      "蜗": 4619,
      "蜘": 4620,
      "蜜": 4621,
      "蜡": 4622,
      "蜥": 4623,
      "蜴": 4624,
      "蜻": 4625,
      "蜿": 4626,
      "蝇": 4627,
      "蝉": 4628,
      "蝎": 4629,
      "蝕": 4630,
      "蝗": 4631,
      "蝙": 4632,
      "蝠": 4633,
      "蝦": 4634,
      "蝨": 4635,
      "蝴": 4636,
      "蝶": 4637,
      "蝸": 4638,
      "螂": 4639,
      "螃": 4640,
      "螈": 4641,
      "融": 4642,
      "螞": 4643,
      "螢": 4644,
      "螨": 4645,
      "螫": 4646,
      "螭": 4647,
      "螳": 4648,
      "螺": 4649,
      "蟄": 4650,
      "蟇": 4651,
      "蟋": 4652,
      "蟎": 4653,
      "蟑": 4654,
      "蟒": 4655,
      "蟠": 4656,
      "蟲": 4657,
      "蟹": 4658,
      "蟻": 4659,
      "蟾": 4660,
      "蠅": 4661,
      "蠊": 4662,
      "蠍": 4663,
      "蠑": 4664,
      "蠔": 4665,
      "蠕": 4666,
      "蠟": 4667,
      "蠢": 4668,
      "蠣": 4669,
      "蠶": 4670,
      "蠻": 4671,
      "血": 4672,
      "衅": 4673,
      "衆": 4674,
      "行": 4675,
      "衍": 4676,
      "術": 4677,
      "衔": 4678,
      "街": 4679,
      "衛": 4680,
      "衝": 4681,
      "衞": 4682,
      "衡": 4683,
      "衣": 4684,
      "补": 4685,
      "表": 4686,
      "衫": 4687,
      "衬": 4688,
      "衰": 4689,
      "衷": 4690,
      "衿": 4691,
      "袁": 4692,
      "袋": 4693,
      "袍": 4694,
      "袒": 4695,
      "袖": 4696,
      "袜": 4697,
      "被": 4698,
      "袭": 4699,
      "袷": 4700,
      "裁": 4701,
      "裂": 4702,
      "装": 4703,
      "裊": 4704,
      "裏": 4705,
      "裔": 4706,
      "裕": 4707,
      "裘": 4708,
      "裙": 4709,
      "補": 4710,
      "裝": 4711,
      "裡": 4712,
      "裤": 4713,
      "裨": 4714,
      "裳": 4715,
      "裴": 4716,
      "裸": 4717,
      "裹": 4718,
      "製": 4719,
      "褂": 4720,
      "複": 4721,
      "褊": 4722,
      "褐": 4723,
      "褚": 4724,
      "褥": 4725,
      "褪": 4726,
      "褯": 4727,
      "褲": 4728,
      "褶": 4729,
      "褻": 4730,
      "襄": 4731,
      "襖": 4732,
      "襟": 4733,
      "襦": 4734,
      "襪": 4735,
      "襯": 4736,
      "襲": 4737,
      "西": 4738,
      "要": 4739,
      "覃": 4740,
      "覆": 4741,
      "覇": 4742,
      "見": 4743,
      "規": 4744,
      "視": 4745,
      "覗": 4746,
      "覚": 4747,
      "覡": 4748,
      "覧": 4749,
      "親": 4750,
      "覲": 4751,
      "観": 4752,
      "覷": 4753,
      "覺": 4754,
      "覽": 4755,
      "觀": 4756,
      "见": 4757,
      "观": 4758,
      "规": 4759,
      "觅": 4760,
      "视": 4761,
      "览": 4762,
      "觉": 4763,
      "角": 4764,
      "解": 4765,
      "触": 4766,
      "觸": 4767,
      "言": 4768,
      "訂": 4769,
      "訃": 4770,
      "訇": 4771,
      "計": 4772,
      "訊": 4773,
      "討": 4774,
      "訓": 4775,
      "訖": 4776,
      "託": 4777,
      "記": 4778,
      "訝": 4779,
      "訟": 4780,
      "訢": 4781,
      "訣": 4782,
      "訥": 4783,
      "訪": 4784,
      "設": 4785,
      "許": 4786,
      "訳": 4787,
      "訴": 4788,
      "診": 4789,
      "註": 4790,
      "証": 4791,
      "詐": 4792,
      "評": 4793,
      "詖": 4794,
      "詛": 4795,
      "詞": 4796,
      "詠": 4797,
      "詢": 4798,
      "試": 4799,
      "詩": 4800,
      "詭": 4801,
      "詮": 4802,
      "詰": 4803,
      "話": 4804,
      "該": 4805,
      "詳": 4806,
      "詹": 4807,
      "詻": 4808,
      "誇": 4809,
      "誉": 4810,
      "誌": 4811,
      "認": 4812,
      "誑": 4813,
      "誓": 4814,
      "誕": 4815,
      "誘": 4816,
      "語": 4817,
      "誠": 4818,
      "誡": 4819,
      "誤": 4820,
      "誦": 4821,
      "說": 4822,
      "説": 4823,
      "読": 4824,
      "誰": 4825,
      "課": 4826,
      "誶": 4827,
      "誹": 4828,
      "誼": 4829,
      "誾": 4830,
      "調": 4831,
      "談": 4832,
      "請": 4833,
      "諒": 4834,
      "論": 4835,
      "諜": 4836,
      "諡": 4837,
      "諧": 4838,
      "諫": 4839,
      "諭": 4840,
      "諮": 4841,
      "諱": 4842,
      "諶": 4843,
      "諷": 4844,
      "諸": 4845,
      "諺": 4846,
      "諾": 4847,
      "謀": 4848,
      "謂": 4849,
      "謊": 4850,
      "謌": 4851,
      "謎": 4852,
      "謏": 4853,
      "謐": 4854,
      "謑": 4855,
      "謗": 4856,
      "謙": 4857,
      "講": 4858,
      "謝": 4859,
      "謠": 4860,
      "謡": 4861,
      "謨": 4862,
      "謳": 4863,
      "謹": 4864,
      "證": 4865,
      "譎": 4866,
      "識": 4867,
      "譙": 4868,
      "譚": 4869,
      "譜": 4870,
      "警": 4871,
      "譫": 4872,
      "譯": 4873,
      "議": 4874,
      "譴": 4875,
      "護": 4876,
      "譽": 4877,
      "讀": 4878,
      "讃": 4879,
      "變": 4880,
      "讐": 4881,
      "讓": 4882,
      "讕": 4883,
      "讚": 4884,
      "计": 4885,
      "订": 4886,
      "认": 4887,
      "讨": 4888,
      "让": 4889,
      "训": 4890,
      "议": 4891,
      "讯": 4892,
      "记": 4893,
      "讲": 4894,
      "讶": 4895,
      "讷": 4896,
      "许": 4897,
      "论": 4898,
      "讼": 4899,
      "讽": 4900,
      "设": 4901,
      "访": 4902,
      "诀": 4903,
      "证": 4904,
      "评": 4905,
      "诅": 4906,
      "识": 4907,
      "诈": 4908,
      "诉": 4909,
      "诊": 4910,
      "词": 4911,
      "译": 4912,
      "试": 4913,
      "诗": 4914,
      "诚": 4915,
      "话": 4916,
      "诞": 4917,
      "诡": 4918,
      "询": 4919,
      "该": 4920,
      "详": 4921,
      "诫": 4922,
      "语": 4923,
      "误": 4924,
      "诰": 4925,
      "诱": 4926,
      "说": 4927,
      "诵": 4928,
      "请": 4929,
      "诸": 4930,
      "诺": 4931,
      "读": 4932,
      "诽": 4933,
      "课": 4934,
      "谁": 4935,
      "调": 4936,
      "谅": 4937,
      "谈": 4938,
      "谊": 4939,
      "谋": 4940,
      "谌": 4941,
      "谍": 4942,
      "谎": 4943,
      "谐": 4944,
      "谓": 4945,
      "谚": 4946,
      "谜": 4947,
      "谟": 4948,
      "谢": 4949,
      "谣": 4950,
      "谤": 4951,
      "谦": 4952,
      "谧": 4953,
      "谨": 4954,
      "谬": 4955,
      "谭": 4956,
      "谱": 4957,
      "谴": 4958,
      "谷": 4959,
      "谿": 4960,
      "豁": 4961,
      "豆": 4962,
      "豉": 4963,
      "豊": 4964,
      "豌": 4965,
      "豎": 4966,
      "豐": 4967,
      "豔": 4968,
      "豗": 4969,
      "豚": 4970,
      "象": 4971,
      "豢": 4972,
      "豪": 4973,
      "豫": 4974,
      "豬": 4975,
      "豹": 4976,
      "豺": 4977,
      "豻": 4978,
      "貂": 4979,
      "貆": 4980,
      "貌": 4981,
      "貍": 4982,
      "貓": 4983,
      "貝": 4984,
      "貞": 4985,
      "負": 4986,
      "財": 4987,
      "貢": 4988,
      "貧": 4989,
      "貨": 4990,
      "販": 4991,
      "貪": 4992,
      "貫": 4993,
      "責": 4994,
      "貯": 4995,
      "貳": 4996,
      "貴": 4997,
      "貶": 4998,
      "買": 4999,
      "貸": 5000,
      "費": 5001,
      "貼": 5002,
      "貽": 5003,
      "貿": 5004,
      "賀": 5005,
      "賁": 5006,
      "賂": 5007,
      "賃": 5008,
      "賄": 5009,
      "資": 5010,
      "賈": 5011,
      "賊": 5012,
      "賓": 5013,
      "賛": 5014,
      "賜": 5015,
      "賞": 5016,
      "賠": 5017,
      "賢": 5018,
      "賣": 5019,
      "賤": 5020,
      "賦": 5021,
      "質": 5022,
      "賬": 5023,
      "賭": 5024,
      "賴": 5025,
      "賺": 5026,
      "購": 5027,
      "賽": 5028,
      "賾": 5029,
      "贅": 5030,
      "贈": 5031,
      "贊": 5032,
      "贏": 5033,
      "贓": 5034,
      "贔": 5035,
      "贖": 5036,
      "贗": 5037,
      "贛": 5038,
      "贝": 5039,
      "贞": 5040,
      "负": 5041,
      "贡": 5042,
      "财": 5043,
      "责": 5044,
      "贤": 5045,
      "败": 5046,
      "账": 5047,
      "货": 5048,
      "质": 5049,
      "贩": 5050,
      "贪": 5051,
      "贫": 5052,
      "贬": 5053,
      "购": 5054,
      "贯": 5055,
      "贱": 5056,
      "贴": 5057,
      "贵": 5058,
      "贷": 5059,
      "贸": 5060,
      "费": 5061,
      "贺": 5062,
      "贻": 5063,
      "贼": 5064,
      "贾": 5065,
      "贿": 5066,
      "赁": 5067,
      "赂": 5068,
      "资": 5069,
      "赋": 5070,
      "赌": 5071,
      "赎": 5072,
      "赏": 5073,
      "赐": 5074,
      "赔": 5075,
      "赖": 5076,
      "赚": 5077,
      "赛": 5078,
      "赞": 5079,
      "赠": 5080,
      "赢": 5081,
      "赤": 5082,
      "赦": 5083,
      "赧": 5084,
      "赫": 5085,
      "走": 5086,
      "赴": 5087,
      "赵": 5088,
      "赶": 5089,
      "起": 5090,
      "趁": 5091,
      "超": 5092,
      "越": 5093,
      "趋": 5094,
      "趔": 5095,
      "趕": 5096,
      "趙": 5097,
      "趟": 5098,
      "趣": 5099,
      "趨": 5100,
      "足": 5101,
      "趾": 5102,
      "跂": 5103,
      "跃": 5104,
      "跆": 5105,
      "跋": 5106,
      "跌": 5107,
      "跑": 5108,
      "跕": 5109,
      "跚": 5110,
      "距": 5111,
      "跟": 5112,
      "跡": 5113,
      "跣": 5114,
      "跤": 5115,
      "跨": 5116,
      "跪": 5117,
      "跬": 5118,
      "路": 5119,
      "跳": 5120,
      "践": 5121,
      "跻": 5122,
      "跼": 5123,
      "踉": 5124,
      "踊": 5125,
      "踏": 5126,
      "踐": 5127,
      "踝": 5128,
      "踞": 5129,
      "踠": 5130,
      "踢": 5131,
      "踣": 5132,
      "踥": 5133,
      "踦": 5134,
      "踩": 5135,
      "踪": 5136,
      "踰": 5137,
      "踴": 5138,
      "蹀": 5139,
      "蹂": 5140,
      "蹄": 5141,
      "蹇": 5142,
      "蹈": 5143,
      "蹊": 5144,
      "蹟": 5145,
      "蹢": 5146,
      "蹣": 5147,
      "蹤": 5148,
      "蹦": 5149,
      "蹬": 5150,
      "蹲": 5151,
      "躁": 5152,
      "躉": 5153,
      "躋": 5154,
      "躍": 5155,
      "躒": 5156,
      "身": 5157,
      "躬": 5158,
      "躯": 5159,
      "躲": 5160,
      "躺": 5161,
      "軀": 5162,
      "車": 5163,
      "軌": 5164,
      "軍": 5165,
      "軒": 5166,
      "軛": 5167,
      "軟": 5168,
      "転": 5169,
      "軫": 5170,
      "軷": 5171,
      "軸": 5172,
      "軻": 5173,
      "軼": 5174,
      "軽": 5175,
      "較": 5176,
      "載": 5177,
      "輓": 5178,
      "輔": 5179,
      "輕": 5180,
      "輛": 5181,
      "輝": 5182,
      "輥": 5183,
      "輩": 5184,
      "輪": 5185,
      "輯": 5186,
      "輸": 5187,
      "輻": 5188,
      "輿": 5189,
      "轄": 5190,
      "轉": 5191,
      "轍": 5192,
      "轎": 5193,
      "轟": 5194,
      "车": 5195,
      "轨": 5196,
      "轩": 5197,
      "转": 5198,
      "轮": 5199,
      "软": 5200,
      "轰": 5201,
      "轴": 5202,
      "轶": 5203,
      "轻": 5204,
      "载": 5205,
      "轿": 5206,
      "较": 5207,
      "辅": 5208,
      "辆": 5209,
      "辈": 5210,
      "辉": 5211,
      "辋": 5212,
      "辍": 5213,
      "辐": 5214,
      "辑": 5215,
      "输": 5216,
      "辕": 5217,
      "辖": 5218,
      "辙": 5219,
      "辛": 5220,
      "辜": 5221,
      "辞": 5222,
      "辟": 5223,
      "辣": 5224,
      "辦": 5225,
      "辨": 5226,
      "辩": 5227,
      "辫": 5228,
      "辭": 5229,
      "辮": 5230,
      "辯": 5231,
      "辰": 5232,
      "辱": 5233,
      "農": 5234,
      "边": 5235,
      "辺": 5236,
      "辻": 5237,
      "込": 5238,
      "辽": 5239,
      "达": 5240,
      "辿": 5241,
      "迁": 5242,
      "迂": 5243,
      "迄": 5244,
      "迅": 5245,
      "过": 5246,
      "迈": 5247,
      "迎": 5248,
      "运": 5249,
      "近": 5250,
      "返": 5251,
      "还": 5252,
      "这": 5253,
      "进": 5254,
      "远": 5255,
      "违": 5256,
      "连": 5257,
      "迟": 5258,
      "迦": 5259,
      "迪": 5260,
      "迫": 5261,
      "迭": 5262,
      "迮": 5263,
      "述": 5264,
      "迴": 5265,
      "迷": 5266,
      "迹": 5267,
      "追": 5268,
      "退": 5269,
      "送": 5270,
      "适": 5271,
      "逃": 5272,
      "逆": 5273,
      "选": 5274,
      "逊": 5275,
      "逍": 5276,
      "透": 5277,
      "逐": 5278,
      "递": 5279,
      "途": 5280,
      "逕": 5281,
      "逖": 5282,
      "逗": 5283,
      "這": 5284,
      "通": 5285,
      "逛": 5286,
      "逝": 5287,
      "速": 5288,
      "造": 5289,
      "逡": 5290,
      "逢": 5291,
      "連": 5292,
      "逮": 5293,
      "週": 5294,
      "進": 5295,
      "逴": 5296,
      "逵": 5297,
      "逸": 5298,
      "逻": 5299,
      "逼": 5300,
      "逾": 5301,
      "遁": 5302,
      "遂": 5303,
      "遇": 5304,
      "遊": 5305,
      "運": 5306,
      "遍": 5307,
      "過": 5308,
      "遏": 5309,
      "遐": 5310,
      "遑": 5311,
      "遒": 5312,
      "道": 5313,
      "達": 5314,
      "違": 5315,
      "遗": 5316,
      "遙": 5317,
      "遜": 5318,
      "遞": 5319,
      "遠": 5320,
      "遣": 5321,
      "遥": 5322,
      "適": 5323,
      "遫": 5324,
      "遭": 5325,
      "遮": 5326,
      "遲": 5327,
      "遵": 5328,
      "遷": 5329,
      "選": 5330,
      "遹": 5331,
      "遺": 5332,
      "遼": 5333,
      "遽": 5334,
      "避": 5335,
      "邀": 5336,
      "邁": 5337,
      "邃": 5338,
      "還": 5339,
      "邇": 5340,
      "邈": 5341,
      "邉": 5342,
      "邊": 5343,
      "邏": 5344,
      "邑": 5345,
      "邓": 5346,
      "邝": 5347,
      "邢": 5348,
      "那": 5349,
      "邦": 5350,
      "邪": 5351,
      "邬": 5352,
      "邮": 5353,
      "邯": 5354,
      "邱": 5355,
      "邵": 5356,
      "邸": 5357,
      "邹": 5358,
      "邻": 5359,
      "郁": 5360,
      "郅": 5361,
      "郊": 5362,
      "郎": 5363,
      "郑": 5364,
      "郛": 5365,
      "郞": 5366,
      "郡": 5367,
      "郢": 5368,
      "部": 5369,
      "郭": 5370,
      "郵": 5371,
      "郷": 5372,
      "郸": 5373,
      "都": 5374,
      "鄂": 5375,
      "鄉": 5376,
      "鄒": 5377,
      "鄔": 5378,
      "鄕": 5379,
      "鄙": 5380,
      "鄧": 5381,
      "鄭": 5382,
      "鄰": 5383,
      "鄲": 5384,
      "酉": 5385,
      "酋": 5386,
      "酌": 5387,
      "配": 5388,
      "酐": 5389,
      "酒": 5390,
      "酔": 5391,
      "酗": 5392,
      "酚": 5393,
      "酢": 5394,
      "酥": 5395,
      "酪": 5396,
      "酬": 5397,
      "酮": 5398,
      "酯": 5399,
      "酰": 5400,
      "酱": 5401,
      "酵": 5402,
      "酶": 5403,
      "酷": 5404,
      "酸": 5405,
      "酿": 5406,
      "醃": 5407,
      "醇": 5408,
      "醉": 5409,
      "醋": 5410,
      "醒": 5411,
      "醚": 5412,
      "醛": 5413,
      "醜": 5414,
      "醝": 5415,
      "醣": 5416,
      "醤": 5417,
      "醫": 5418,
      "醬": 5419,
      "醲": 5420,
      "釀": 5421,
      "釁": 5422,
      "采": 5423,
      "釉": 5424,
      "释": 5425,
      "釋": 5426,
      "里": 5427,
      "重": 5428,
      "野": 5429,
      "量": 5430,
      "釐": 5431,
      "金": 5432,
      "釕": 5433,
      "釗": 5434,
      "釘": 5435,
      "釜": 5436,
      "針": 5437,
      "釣": 5438,
      "釧": 5439,
      "釩": 5440,
      "釹": 5441,
      "鈀": 5442,
      "鈇": 5443,
      "鈉": 5444,
      "鈍": 5445,
      "鈔": 5446,
      "鈕": 5447,
      "鈞": 5448,
      "鈣": 5449,
      "鈦": 5450,
      "鈮": 5451,
      "鈰": 5452,
      "鈴": 5453,
      "鈷": 5454,
      "鈹": 5455,
      "鈺": 5456,
      "鈾": 5457,
      "鉀": 5458,
      "鉄": 5459,
      "鉅": 5460,
      "鉆": 5461,
      "鉉": 5462,
      "鉍": 5463,
      "鉑": 5464,
      "鉗": 5465,
      "鉛": 5466,
      "鉢": 5467,
      "鉤": 5468,
      "鉬": 5469,
      "鉴": 5470,
      "鉸": 5471,
      "鉻": 5472,
      "銀": 5473,
      "銃": 5474,
      "銅": 5475,
      "銍": 5476,
      "銑": 5477,
      "銓": 5478,
      "銖": 5479,
      "銘": 5480,
      "銛": 5481,
      "銜": 5482,
      "銠": 5483,
      "銦": 5484,
      "銨": 5485,
      "銫": 5486,
      "銬": 5487,
      "銭": 5488,
      "銳": 5489,
      "銷": 5490,
      "銹": 5491,
      "銻": 5492,
      "銼": 5493,
      "鋁": 5494,
      "鋅": 5495,
      "鋇": 5496,
      "鋏": 5497,
      "鋒": 5498,
      "鋤": 5499,
      "鋪": 5500,
      "鋯": 5501,
      "鋰": 5502,
      "鋸": 5503,
      "鋹": 5504,
      "鋼": 5505,
      "錄": 5506,
      "錐": 5507,
      "錘": 5508,
      "錠": 5509,
      "錢": 5510,
      "錦": 5511,
      "錨": 5512,
      "錫": 5513,
      "錬": 5514,
      "錯": 5515,
      "録": 5516,
      "錳": 5517,
      "錶": 5518,
      "鍊": 5519,
      "鍋": 5520,
      "鍍": 5521,
      "鍔": 5522,
      "鍛": 5523,
      "鍵": 5524,
      "鍶": 5525,
      "鍺": 5526,
      "鍼": 5527,
      "鍾": 5528,
      "鎂": 5529,
      "鎊": 5530,
      "鎌": 5531,
      "鎖": 5532,
      "鎗": 5533,
      "鎘": 5534,
      "鎚": 5535,
      "鎢": 5536,
      "鎣": 5537,
      "鎧": 5538,
      "鎬": 5539,
      "鎭": 5540,
      "鎮": 5541,
      "鎳": 5542,
      "鎵": 5543,
      "鏈": 5544,
      "鏌": 5545,
      "鏗": 5546,
      "鏘": 5547,
      "鏟": 5548,
      "鏡": 5549,
      "鏢": 5550,
      "鏦": 5551,
      "鏹": 5552,
      "鏽": 5553,
      "鐘": 5554,
      "鐮": 5555,
      "鐲": 5556,
      "鐳": 5557,
      "鐵": 5558,
      "鐸": 5559,
      "鑄": 5560,
      "鑊": 5561,
      "鑑": 5562,
      "鑒": 5563,
      "鑫": 5564,
      "鑭": 5565,
      "鑰": 5566,
      "鑲": 5567,
      "鑷": 5568,
      "鑼": 5569,
      "鑽": 5570,
      "鑾": 5571,
      "鑿": 5572,
      "钃": 5573,
      "钇": 5574,
      "针": 5575,
      "钉": 5576,
      "钊": 5577,
      "钌": 5578,
      "钒": 5579,
      "钓": 5580,
      "钕": 5581,
      "钗": 5582,
      "钙": 5583,
      "钛": 5584,
      "钝": 5585,
      "钞": 5586,
      "钟": 5587,
      "钠": 5588,
      "钡": 5589,
      "钢": 5590,
      "钥": 5591,
      "钦": 5592,
      "钨": 5593,
      "钩": 5594,
      "钮": 5595,
      "钯": 5596,
      "钰": 5597,
      "钱": 5598,
      "钳": 5599,
      "钴": 5600,
      "钻": 5601,
      "钼": 5602,
      "钽": 5603,
      "钾": 5604,
      "钿": 5605,
      "铀": 5606,
      "铁": 5607,
      "铂": 5608,
      "铃": 5609,
      "铅": 5610,
      "铆": 5611,
      "铈": 5612,
      "铉": 5613,
      "铋": 5614,
      "铌": 5615,
      "铍": 5616,
      "铎": 5617,
      "铐": 5618,
      "铑": 5619,
      "铜": 5620,
      "铝": 5621,
      "铟": 5622,
      "铢": 5623,
      "铣": 5624,
      "铨": 5625,
      "铬": 5626,
      "铭": 5627,
      "铰": 5628,
      "铱": 5629,
      "铲": 5630,
      "银": 5631,
      "铸": 5632,
      "铺": 5633,
      "链": 5634,
      "销": 5635,
      "锁": 5636,
      "锂": 5637,
      "锅": 5638,
      "锆": 5639,
      "锈": 5640,
      "锋": 5641,
      "锌": 5642,
      "锐": 5643,
      "锑": 5644,
      "锗": 5645,
      "错": 5646,
      "锚": 5647,
      "锡": 5648,
      "锣": 5649,
      "锤": 5650,
      "锥": 5651,
      "锦": 5652,
      "键": 5653,
      "锯": 5654,
      "锰": 5655,
      "锶": 5656,
      "锻": 5657,
      "镀": 5658,
      "镁": 5659,
      "镂": 5660,
      "镇": 5661,
      "镉": 5662,
      "镍": 5663,
      "镐": 5664,
      "镑": 5665,
      "镓": 5666,
      "镖": 5667,
      "镜": 5668,
      "镧": 5669,
      "镨": 5670,
      "镭": 5671,
      "镯": 5672,
      "镰": 5673,
      "镶": 5674,
      "長": 5675,
      "长": 5676,
      "門": 5677,
      "閂": 5678,
      "閃": 5679,
      "閉": 5680,
      "開": 5681,
      "閎": 5682,
      "閏": 5683,
      "閑": 5684,
      "閒": 5685,
      "間": 5686,
      "閔": 5687,
      "閘": 5688,
      "閡": 5689,
      "関": 5690,
      "閣": 5691,
      "閤": 5692,
      "閥": 5693,
      "閦": 5694,
      "閨": 5695,
      "閩": 5696,
      "閬": 5697,
      "閭": 5698,
      "閱": 5699,
      "閻": 5700,
      "閾": 5701,
      "闆": 5702,
      "闇": 5703,
      "闊": 5704,
      "闌": 5705,
      "闔": 5706,
      "闖": 5707,
      "闘": 5708,
      "關": 5709,
      "闡": 5710,
      "闢": 5711,
      "门": 5712,
      "闪": 5713,
      "闭": 5714,
      "问": 5715,
      "闯": 5716,
      "闲": 5717,
      "闳": 5718,
      "间": 5719,
      "闵": 5720,
      "闷": 5721,
      "闸": 5722,
      "闹": 5723,
      "闺": 5724,
      "闻": 5725,
      "闽": 5726,
      "闾": 5727,
      "阀": 5728,
      "阁": 5729,
      "阅": 5730,
      "阊": 5731,
      "阎": 5732,
      "阐": 5733,
      "阑": 5734,
      "阔": 5735,
      "阖": 5736,
      "阜": 5737,
      "阞": 5738,
      "队": 5739,
      "阤": 5740,
      "阪": 5741,
      "阮": 5742,
      "阯": 5743,
      "阱": 5744,
      "防": 5745,
      "阳": 5746,
      "阴": 5747,
      "阵": 5748,
      "阶": 5749,
      "阻": 5750,
      "阿": 5751,
      "陀": 5752,
      "陂": 5753,
      "附": 5754,
      "际": 5755,
      "陆": 5756,
      "陈": 5757,
      "陋": 5758,
      "陌": 5759,
      "降": 5760,
      "限": 5761,
      "陔": 5762,
      "陛": 5763,
      "陝": 5764,
      "陞": 5765,
      "陟": 5766,
      "陡": 5767,
      "院": 5768,
      "陣": 5769,
      "除": 5770,
      "陨": 5771,
      "险": 5772,
      "陪": 5773,
      "陰": 5774,
      "陳": 5775,
      "陵": 5776,
      "陶": 5777,
      "陷": 5778,
      "陸": 5779,
      "険": 5780,
      "陽": 5781,
      "隃": 5782,
      "隅": 5783,
      "隆": 5784,
      "隈": 5785,
      "隊": 5786,
      "隋": 5787,
      "階": 5788,
      "随": 5789,
      "隐": 5790,
      "隔": 5791,
      "隕": 5792,
      "隘": 5793,
      "隙": 5794,
      "際": 5795,
      "障": 5796,
      "隠": 5797,
      "隣": 5798,
      "隧": 5799,
      "隨": 5800,
      "隩": 5801,
      "險": 5802,
      "隰": 5803,
      "隱": 5804,
      "隳": 5805,
      "隶": 5806,
      "隷": 5807,
      "隸": 5808,
      "隻": 5809,
      "隼": 5810,
      "难": 5811,
      "雀": 5812,
      "雁": 5813,
      "雄": 5814,
      "雅": 5815,
      "集": 5816,
      "雇": 5817,
      "雉": 5818,
      "雋": 5819,
      "雌": 5820,
      "雍": 5821,
      "雎": 5822,
      "雏": 5823,
      "雑": 5824,
      "雕": 5825,
      "雖": 5826,
      "雙": 5827,
      "雛": 5828,
      "雜": 5829,
      "雞": 5830,
      "離": 5831,
      "難": 5832,
      "雨": 5833,
      "雪": 5834,
      "雫": 5835,
      "雯": 5836,
      "雲": 5837,
      "雳": 5838,
      "零": 5839,
      "雷": 5840,
      "雹": 5841,
      "電": 5842,
      "雾": 5843,
      "需": 5844,
      "霂": 5845,
      "霄": 5846,
      "霅": 5847,
      "霆": 5848,
      "震": 5849,
      "霉": 5850,
      "霊": 5851,
      "霍": 5852,
      "霓": 5853,
      "霖": 5854,
      "霜": 5855,
      "霞": 5856,
      "霧": 5857,
      "霰": 5858,
      "露": 5859,
      "霸": 5860,
      "霹": 5861,
      "霽": 5862,
      "霾": 5863,
      "靂": 5864,
      "靄": 5865,
      "靈": 5866,
      "靉": 5867,
      "靐": 5868,
      "靑": 5869,
      "青": 5870,
      "靖": 5871,
      "静": 5872,
      "靚": 5873,
      "靛": 5874,
      "靜": 5875,
      "非": 5876,
      "靠": 5877,
      "靡": 5878,
      "面": 5879,
      "靦": 5880,
      "革": 5881,
      "靭": 5882,
      "靳": 5883,
      "靴": 5884,
      "靶": 5885,
      "鞅": 5886,
      "鞋": 5887,
      "鞍": 5888,
      "鞏": 5889,
      "鞘": 5890,
      "鞠": 5891,
      "鞣": 5892,
      "鞦": 5893,
      "鞭": 5894,
      "韁": 5895,
      "韆": 5896,
      "韋": 5897,
      "韌": 5898,
      "韓": 5899,
      "韙": 5900,
      "韜": 5901,
      "韞": 5902,
      "韡": 5903,
      "韦": 5904,
      "韧": 5905,
      "韩": 5906,
      "韭": 5907,
      "音": 5908,
      "韵": 5909,
      "韶": 5910,
      "韺": 5911,
      "韻": 5912,
      "響": 5913,
      "頀": 5914,
      "頁": 5915,
      "頂": 5916,
      "頃": 5917,
      "項": 5918,
      "順": 5919,
      "須": 5920,
      "頊": 5921,
      "頌": 5922,
      "預": 5923,
      "頑": 5924,
      "頒": 5925,
      "頓": 5926,
      "頔": 5927,
      "頖": 5928,
      "頗": 5929,
      "領": 5930,
      "頜": 5931,
      "頡": 5932,
      "頤": 5933,
      "頫": 5934,
      "頭": 5935,
      "頰": 5936,
      "頷": 5937,
      "頸": 5938,
      "頹": 5939,
      "頻": 5940,
      "頼": 5941,
      "顆": 5942,
      "題": 5943,
      "額": 5944,
      "顎": 5945,
      "顏": 5946,
      "顒": 5947,
      "顓": 5948,
      "顔": 5949,
      "願": 5950,
      "顛": 5951,
      "顜": 5952,
      "類": 5953,
      "顥": 5954,
      "顧": 5955,
      "顫": 5956,
      "顯": 5957,
      "顱": 5958,
      "顳": 5959,
      "页": 5960,
      "顶": 5961,
      "顷": 5962,
      "项": 5963,
      "顺": 5964,
      "须": 5965,
      "顽": 5966,
      "顾": 5967,
      "顿": 5968,
      "颁": 5969,
      "颂": 5970,
      "预": 5971,
      "颅": 5972,
      "领": 5973,
      "颇": 5974,
      "颈": 5975,
      "颊": 5976,
      "颌": 5977,
      "颐": 5978,
      "频": 5979,
      "颖": 5980,
      "颗": 5981,
      "题": 5982,
      "颚": 5983,
      "颜": 5984,
      "额": 5985,
      "颠": 5986,
      "風": 5987,
      "颯": 5988,
      "颱": 5989,
      "颶": 5990,
      "飄": 5991,
      "飆": 5992,
      "风": 5993,
      "飓": 5994,
      "飘": 5995,
      "飙": 5996,
      "飛": 5997,
      "飞": 5998,
      "食": 5999,
      "飢": 6000,
      "飩": 6001,
      "飪": 6002,
      "飯": 6003,
      "飲": 6004,
      "飴": 6005,
      "飼": 6006,
      "飽": 6007,
      "飾": 6008,
      "餃": 6009,
      "餅": 6010,
      "養": 6011,
      "餌": 6012,
      "餐": 6013,
      "餒": 6014,
      "餓": 6015,
      "餘": 6016,
      "餚": 6017,
      "餛": 6018,
      "餜": 6019,
      "餠": 6020,
      "餡": 6021,
      "館": 6022,
      "餩": 6023,
      "餮": 6024,
      "餲": 6025,
      "餵": 6026,
      "餾": 6027,
      "饋": 6028,
      "饎": 6029,
      "饑": 6030,
      "饒": 6031,
      "饕": 6032,
      "饞": 6033,
      "饥": 6034,
      "饪": 6035,
      "饭": 6036,
      "饮": 6037,
      "饰": 6038,
      "饱": 6039,
      "饲": 6040,
      "饵": 6041,
      "饶": 6042,
      "饼": 6043,
      "饿": 6044,
      "馅": 6045,
      "馆": 6046,
      "馈": 6047,
      "馏": 6048,
      "首": 6049,
      "香": 6050,
      "馨": 6051,
      "馬": 6052,
      "馭": 6053,
      "馮": 6054,
      "馳": 6055,
      "馴": 6056,
      "駁": 6057,
      "駄": 6058,
      "駅": 6059,
      "駐": 6060,
      "駑": 6061,
      "駒": 6062,
      "駕": 6063,
      "駘": 6064,
      "駙": 6065,
      "駛": 6066,
      "駝": 6067,
      "駟": 6068,
      "駭": 6069,
      "駱": 6070,
      "駽": 6071,
      "駿": 6072,
      "騍": 6073,
      "騎": 6074,
      "騏": 6075,
      "騒": 6076,
      "験": 6077,
      "騖": 6078,
      "騙": 6079,
      "騮": 6080,
      "騰": 6081,
      "騷": 6082,
      "驁": 6083,
      "驅": 6084,
      "驍": 6085,
      "驕": 6086,
      "驗": 6087,
      "驚": 6088,
      "驛": 6089,
      "驟": 6090,
      "驢": 6091,
      "驥": 6092,
      "驪": 6093,
      "马": 6094,
      "驯": 6095,
      "驰": 6096,
      "驱": 6097,
      "驳": 6098,
      "驴": 6099,
      "驶": 6100,
      "驹": 6101,
      "驻": 6102,
      "驼": 6103,
      "驾": 6104,
      "驿": 6105,
      "骂": 6106,
      "骄": 6107,
      "骆": 6108,
      "验": 6109,
      "骏": 6110,
      "骑": 6111,
      "骗": 6112,
      "骚": 6113,
      "骤": 6114,
      "骨": 6115,
      "骯": 6116,
      "骰": 6117,
      "骷": 6118,
      "骸": 6119,
      "骼": 6120,
      "髅": 6121,
      "髋": 6122,
      "髏": 6123,
      "髑": 6124,
      "髒": 6125,
      "髓": 6126,
      "體": 6127,
      "髖": 6128,
      "高": 6129,
      "髙": 6130,
      "髞": 6131,
      "髦": 6132,
      "髪": 6133,
      "髮": 6134,
      "鬅": 6135,
      "鬆": 6136,
      "鬍": 6137,
      "鬘": 6138,
      "鬚": 6139,
      "鬢": 6140,
      "鬣": 6141,
      "鬥": 6142,
      "鬧": 6143,
      "鬨": 6144,
      "鬱": 6145,
      "鬼": 6146,
      "魁": 6147,
      "魂": 6148,
      "魃": 6149,
      "魄": 6150,
      "魅": 6151,
      "魍": 6152,
      "魎": 6153,
      "魏": 6154,
      "魑": 6155,
      "魔": 6156,
      "魚": 6157,
      "魣": 6158,
      "魯": 6159,
      "魵": 6160,
      "魷": 6161,
      "鮑": 6162,
      "鮚": 6163,
      "鮞": 6164,
      "鮪": 6165,
      "鮫": 6166,
      "鮭": 6167,
      "鮮": 6168,
      "鯉": 6169,
      "鯊": 6170,
      "鯖": 6171,
      "鯛": 6172,
      "鯡": 6173,
      "鯨": 6174,
      "鯰": 6175,
      "鯱": 6176,
      "鰐": 6177,
      "鰭": 6178,
      "鰮": 6179,
      "鰹": 6180,
      "鰻": 6181,
      "鰽": 6182,
      "鱆": 6183,
      "鱈": 6184,
      "鱒": 6185,
      "鱗": 6186,
      "鱘": 6187,
      "鱲": 6188,
      "鱷": 6189,
      "鱸": 6190,
      "鱼": 6191,
      "鱿": 6192,
      "鲁": 6193,
      "鲈": 6194,
      "鲍": 6195,
      "鲑": 6196,
      "鲜": 6197,
      "鲤": 6198,
      "鲨": 6199,
      "鲫": 6200,
      "鲭": 6201,
      "鲱": 6202,
      "鲸": 6203,
      "鳄": 6204,
      "鳍": 6205,
      "鳕": 6206,
      "鳞": 6207,
      "鳟": 6208,
      "鳥": 6209,
      "鳩": 6210,
      "鳳": 6211,
      "鳴": 6212,
      "鴃": 6213,
      "鴆": 6214,
      "鴉": 6215,
      "鴕": 6216,
      "鴛": 6217,
      "鴣": 6218,
      "鴦": 6219,
      "鴨": 6220,
      "鴯": 6221,
      "鴻": 6222,
      "鴿": 6223,
      "鵑": 6224,
      "鵓": 6225,
      "鵜": 6226,
      "鵝": 6227,
      "鵡": 6228,
      "鵬": 6229,
      "鵰": 6230,
      "鶂": 6231,
      "鶏": 6232,
      "鶓": 6233,
      "鶘": 6234,
      "鶯": 6235,
      "鶱": 6236,
      "鶴": 6237,
      "鶻": 6238,
      "鷓": 6239,
      "鷗": 6240,
      "鷙": 6241,
      "鷲": 6242,
      "鷹": 6243,
      "鷺": 6244,
      "鸁": 6245,
      "鸚": 6246,
      "鸛": 6247,
      "鸞": 6248,
      "鸟": 6249,
      "鸠": 6250,
      "鸡": 6251,
      "鸣": 6252,
      "鸥": 6253,
      "鸦": 6254,
      "鸭": 6255,
      "鸵": 6256,
      "鸸": 6257,
      "鸽": 6258,
      "鸾": 6259,
      "鸿": 6260,
      "鹅": 6261,
      "鹈": 6262,
      "鹉": 6263,
      "鹌": 6264,
      "鹏": 6265,
      "鹑": 6266,
      "鹕": 6267,
      "鹤": 6268,
      "鹦": 6269,
      "鹭": 6270,
      "鹰": 6271,
      "鹳": 6272,
      "鹵": 6273,
      "鹹": 6274,
      "鹼": 6275,
      "鹽": 6276,
      "鹿": 6277,
      "麈": 6278,
      "麋": 6279,
      "麒": 6280,
      "麓": 6281,
      "麗": 6282,
      "麚": 6283,
      "麝": 6284,
      "麟": 6285,
      "麤": 6286,
      "麥": 6287,
      "麦": 6288,
      "麩": 6289,
      "麮": 6290,
      "麰": 6291,
      "麴": 6292,
      "麵": 6293,
      "麺": 6294,
      "麻": 6295,
      "麼": 6296,
      "麽": 6297,
      "麾": 6298,
      "麿": 6299,
      "黃": 6300,
      "黄": 6301,
      "黌": 6302,
      "黎": 6303,
      "黏": 6304,
      "黐": 6305,
      "黑": 6306,
      "黒": 6307,
      "黔": 6308,
      "黕": 6309,
      "默": 6310,
      "黙": 6311,
      "黛": 6312,
      "點": 6313,
      "黢": 6314,
      "黨": 6315,
      "黯": 6316,
      "黲": 6317,
      "黴": 6318,
      "黹": 6319,
      "黽": 6320,
      "鼎": 6321,
      "鼓": 6322,
      "鼠": 6323,
      "鼬": 6324,
      "鼷": 6325,
      "鼻": 6326,
      "齊": 6327,
      "齋": 6328,
      "齎": 6329,
      "齐": 6330,
      "齒": 6331,
      "齡": 6332,
      "齢": 6333,
      "齦": 6334,
      "齪": 6335,
      "齶": 6336,
      "齷": 6337,
      "齾": 6338,
      "齿": 6339,
      "龄": 6340,
      "龈": 6341,
      "龍": 6342,
      "龐": 6343,
      "龔": 6344,
      "龕": 6345,
      "龙": 6346,
      "龚": 6347,
      "龜": 6348,
      "龟": 6349,
      "_<w>r": 6350,
      "_<w>a": 6351,
      "_<w>n": 6352,
      "_<w>c": 6353,
      "_<w>h": 6354,
      "_<w>e": 6355,
      "_<w>v": 6356,
      "_<w>l": 6357,
      "_<w>e</w>": 6358,
      "_<w>m": 6359,
      "_<w>y": 6360,
      "_<w>s": 6361,
      "_<w>n</w>": 6362,
      "_<w>漫</w>": 6363,
      "_<w>u": 6364,
      "_<w>r</w>": 6365,
      "_<w>d": 6366,
      "_<w>o": 6367,
      "_<w>t": 6368,
      "_<w>m</w>": 6369,
      "_<w>g": 6370,
      "_<w>i": 6371,
      "_<w>b": 6372,
      "_<w>i</w>": 6373,
      "_<w>k": 6374,
      "_<w>z": 6375,
      "_<w>p": 6376,
      "_<w>o</w>": 6377,
      "_<w>型": 6378,
      "_<w>船</w>": 6379,
      "_<w>k</w>": 6380,
      "_<w>細</w>": 6381,
      "_<w>t</w>": 6382,
      "_<w>w</w>": 6383,
      "_<w>s</w>": 6384,
      "_<w>特</w>": 6385,
      "_<w>a</w>": 6386,
      "_<w>f": 6387,
      "_<w>y</w>": 6388,
      "_<w>x": 6389,
      "_<w>l</w>": 6390,
      "_<w>w": 6391,
      "_<w>g</w>": 6392,
      "_<w>x</w>": 6393,
      "_<w>q": 6394,
      "_<w>紀</w>": 6395,
      "_<w>c</w>": 6396,
      "_<w>統</w>": 6397,
      "_<w>u</w>": 6398,
      "_<w>d</w>": 6399,
      "_<w>奈": 6400,
      "_<w>梅</w>": 6401,
      "_<w>z</w>": 6402,
      "_<w>j": 6403,
      "_<w>h</w>": 6404,
      "_<w>4": 6405,
      "_<w>错</w>": 6406,
      "_<w>找</w>": 6407,
      "獚</w>": 6408,
      "_<w>b</w>": 6409,
      "_<w>北</w>": 6410,
      "_<w>出</w>": 6411,
      "_<w>鼓</w>": 6412,
      "_<w>風": 6413,
      "_<w>格": 6414,
      "_<w>將</w>": 6415,
      "_<w>否</w>": 6416,
      "_<w>基</w>": 6417,
      "_<w>邊</w>": 6418,
      "_<w>福</w>": 6419,
      "_<w>f</w>": 6420,
      "_<w>隔</w>": 6421,
      "_<w>過</w>": 6422,
      "_<w>电": 6423,
      "_<w>供": 6424,
      "_<w>应</w>": 6425,
      "_<w>爾": 6426,
      "_<w>斯": 6427,
      "_<w>巴</w>": 6428,
      "_<w>牛</w>": 6429,
      "_<w>大": 6430,
      "_<w>衣</w>": 6431,
      "_<w>萊": 6432,
      "_<w>斯</w>": 6433,
      "_<w>尔": 6434,
      "_<w>达</w>": 6435,
      "_<w>命": 6436,
      "_<w>书</w>": 6437,
      "_<w>9": 6438,
      "_<w>7</w>": 6439,
      "_<w>方": 6440,
      "_<w>和</w>": 6441,
      "_<w>p</w>": 6442,
      "_<w>務": 6443,
      "_<w>馬": 6444,
      "_<w>來</w>": 6445,
      "_<w>計": 6446,
      "_<w>劃</w>": 6447,
      "_<w>鉴</w>": 6448,
      "_<w>非": 6449,
      "_<w>亞</w>": 6450,
      "_<w>中": 6451,
      "_<w>地</w>": 6452,
      "_<w>5": 6453,
      "_<w>8</w>": 6454,
      "_<w>成": 6455,
      "_<w>本</w>": 6456,
      "_<w>2": 6457,
      "_<w>0": 6458,
      "_<w>1": 6459,
      "_<w>4</w>": 6460,
      "_<w>然</w>": 6461,
      "_<w>3": 6462,
      "_<w>遊": 6463,
      "_<w>戲</w>": 6464,
      "_<w>米": 6465,
      "_<w>娜</w>": 6466,
      "_<w>城</w>": 6467,
      "_<w>心</w>": 6468,
      "_<w>刀</w>": 6469,
      "_<w>敦": 6470,
      "_<w>府</w>": 6471,
      "_<w>氣</w>": 6472,
      "_<w>崇": 6473,
      "_<w>荣</w>": 6474,
      "_<w>達": 6475,
      "_<w>揚</w>": 6476,
      "_<w>8": 6477,
      "_<w>0</w>": 6478,
      "_<w>j</w>": 6479,
      "_<w>庫": 6480,
      "_<w>漢": 6481,
      "_<w>鳥</w>": 6482,
      "_<w>單</w>": 6483,
      "_<w>接</w>": 6484,
      "_<w>絲": 6485,
      "_<w>王</w>": 6486,
      "_<w>融</w>": 6487,
      "_<w>裔</w>": 6488,
      "_<w>趾</w>": 6489,
      "_<w>厚</w>": 6490,
      "_<w>花": 6491,
      "_<w>菜</w>": 6492,
      "_<w>训</w>": 6493,
      "_<w>思": 6494,
      "_<w>國": 6495,
      "_<w>會": 6496,
      "_<w>山</w>": 6497,
      "醜</w>": 6498,
      "_<w>閣": 6499,
      "_<w>部</w>": 6500,
      "_<w>备</w>": 6501,
      "_<w>蒂": 6502,
      "_<w>戈": 6503,
      "_<w>諾</w>": 6504,
      "_<w>亞": 6505,
      "_<w>華": 6506,
      "_<w>前": 6507,
      "_<w>班</w>": 6508,
      "_<w>克": 6509,
      "_<w>唐</w>": 6510,
      "揵</w>": 6511,
      "_<w>德": 6512,
      "_<w>洙</w>": 6513,
      "_<w>v</w>": 6514,
      "_<w>7": 6515,
      "_<w>6</w>": 6516,
      "_<w>个</w>": 6517,
      "_<w>3</w>": 6518,
      "_<w>6": 6519,
      "_<w>大</w>": 6520,
      "_<w>背</w>": 6521,
      "_<w>俱": 6522,
      "_<w>樂</w>": 6523,
      "_<w>点</w>": 6524,
      "_<w>育": 6525,
      "_<w>设": 6526,
      "_<w>施</w>": 6527,
      "_<w>塔": 6528,
      "_<w>那": 6529,
      "_<w>摩": 6530,
      "_<w>湾</w>": 6531,
      "_<w>程</w>": 6532,
      "_<w>漫": 6533,
      "_<w>額</w>": 6534,
      "_<w>敗</w>": 6535,
      "_<w>跑</w>": 6536,
      "_<w>義</w>": 6537,
      "_<w>園</w>": 6538,
      "_<w>燦": 6539,
      "_<w>發</w>": 6540,
      "_<w>文</w>": 6541,
      "_<w>藥": 6542,
      "_<w>物</w>": 6543,
      "_<w>萊</w>": 6544,
      "_<w>礼": 6545,
      "_<w>堂</w>": 6546,
      "_<w>河</w>": 6547,
      "_<w>勒</w>": 6548,
      "_<w>士": 6549,
      "_<w>讀</w>": 6550,
      "_<w>專": 6551,
      "_<w>門</w>": 6552,
      "_<w>當": 6553,
      "_<w>奴</w>": 6554,
      "_<w>立</w>": 6555,
      "_<w>爾</w>": 6556,
      "_<w>式</w>": 6557,
      "_<w>島</w>": 6558,
      "_<w>傳": 6559,
      "_<w>謝</w>": 6560,
      "濡</w>": 6561,
      "_<w>丹</w>": 6562,
      "_<w>尼": 6563,
      "_<w>亚</w>": 6564,
      "_<w>卫": 6565,
      "_<w>军</w>": 6566,
      "_<w>昂</w>": 6567,
      "_<w>一</w>": 6568,
      "_<w>資": 6569,
      "_<w>者</w>": 6570,
      "_<w>師": 6571,
      "_<w>慶": 6572,
      "_<w>祝</w>": 6573,
      "_<w>饰": 6574,
      "_<w>性</w>": 6575,
      "_<w>样</w>": 6576,
      "_<w>督": 6577,
      "_<w>頭": 6578,
      "_<w>銜</w>": 6579,
      "_<w>知</w>": 6580,
      "_<w>节</w>": 6581,
      "_<w>洲</w>": 6582,
      "_<w>到</w>": 6583,
      "_<w>鱼</w>": 6584,
      "_<w>称</w>": 6585,
      "_<w>盜</w>": 6586,
      "_<w>寺</w>": 6587,
      "_<w>飾</w>": 6588,
      "_<w>诸": 6589,
      "_<w>实": 6590,
      "_<w>践</w>": 6591,
      ",</w>": 6592,
      "_<w>象</w>": 6593,
      "_<w>榮": 6594,
      "_<w>通</w>": 6595,
      "_<w>春</w>": 6596,
      "_<w>雄": 6597,
      "_<w>偉</w>": 6598,
      "_<w>户</w>": 6599,
      "_<w>便</w>": 6600,
      "_<w>迪": 6601,
      "_<w>級</w>": 6602,
      "_<w>态": 6603,
      "_<w>区": 6604,
      "_<w>域</w>": 6605,
      "_<w>經": 6606,
      "_<w>員</w>": 6607,
      "_<w>拉</w>": 6608,
      "_<w>奖</w>": 6609,
      "_<w>圆": 6610,
      "_<w>形</w>": 6611,
      "_<w>5</w>": 6612,
      "_<w>蚀</w>": 6613,
      "_<w>飯</w>": 6614,
      "_<w>裂</w>": 6615,
      "_<w>電": 6616,
      "_<w>視</w>": 6617,
      "_<w>學</w>": 6618,
      "_<w>備</w>": 6619,
      "_<w>寨</w>": 6620,
      "_<w>经</w>": 6621,
      "_<w>市</w>": 6622,
      "鬆</w>": 6623,
      "_<w>苏": 6624,
      "_<w>丁</w>": 6625,
      "_<w>搏</w>": 6626,
      "_<w>麻</w>": 6627,
      "_<w>該</w>": 6628,
      "_<w>元</w>": 6629,
      "_<w>關": 6630,
      "_<w>語</w>": 6631,
      "_<w>巴": 6632,
      "_<w>頓</w>": 6633,
      "_<w>並</w>": 6634,
      "_<w>吕": 6635,
      "_<w>赫</w>": 6636,
      "_<w>刚</w>": 6637,
      "_<w>紹": 6638,
      "_<w>給</w>": 6639,
      "_<w>長</w>": 6640,
      "_<w>利": 6641,
      "_<w>语</w>": 6642,
      "_<w>9</w>": 6643,
      "_<w>位": 6644,
      "_<w>一": 6645,
      "_<w>体</w>": 6646,
      "_<w>玛</w>": 6647,
      "_<w>前</w>": 6648,
      "_<w>军": 6649,
      "_<w>和": 6650,
      "_<w>穆</w>": 6651,
      "_<w>息": 6652,
      "_<w>安": 6653,
      "_<w>全</w>": 6654,
      "_<w>炸": 6655,
      "_<w>案</w>": 6656,
      "_<w>衣": 6657,
      "_<w>店</w>": 6658,
      "_<w>應</w>": 6659,
      "_<w>賢</w>": 6660,
      "_<w>毓": 6661,
      "_<w>圣</w>": 6662,
      "_<w>科</w>": 6663,
      "_<w>點</w>": 6664,
      "_<w>配</w>": 6665,
      "_<w>路": 6666,
      "_<w>人</w>": 6667,
      "_<w>可</w>": 6668,
      "_<w>後": 6669,
      "_<w>再</w>": 6670,
      "_<w>次</w>": 6671,
      "_<w>書</w>": 6672,
      "_<w>水": 6673,
      "_<w>國</w>": 6674,
      "_<w>放": 6675,
      "_<w>棄</w>": 6676,
      "_<w>冷</w>": 6677,
      "_<w>后</w>": 6678,
      "_<w>峰</w>": 6679,
      "_<w>香</w>": 6680,
      "_<w>屋</w>": 6681,
      "_<w>恩</w>": 6682,
      "_<w>會</w>": 6683,
      "_<w>肠</w>": 6684,
      "_<w>關</w>": 6685,
      "_<w>蘭": 6686,
      "_<w>家</w>": 6687,
      "_<w>對": 6688,
      "_<w>聲</w>": 6689,
      "_<w>間</w>": 6690,
      "_<w>塗</w>": 6691,
      "_<w>莱": 6692,
      "_<w>克</w>": 6693,
      "_<w>明": 6694,
      "_<w>州</w>": 6695,
      "_<w>婭</w>": 6696,
      "_<w>因</w>": 6697,
      "炮</w>": 6698,
      "_<w>梁</w>": 6699,
      "_<w>敏": 6700,
      "_<w>銳</w>": 6701,
      "_<w>剑</w>": 6702,
      "_<w>蓮</w>": 6703,
      "侂</w>": 6704,
      "_<w>里</w>": 6705,
      "_<w>区</w>": 6706,
      "_<w>獎</w>": 6707,
      "_<w>勒": 6708,
      "_<w>廈</w>": 6709,
      "_<w>座</w>": 6710,
      "_<w>剃": 6711,
      "_<w>的</w>": 6712,
      "_<w>色</w>": 6713,
      "_<w>子</w>": 6714,
      "_<w>无": 6715,
      "_<w>所": 6716,
      "_<w>能</w>": 6717,
      "_<w>而</w>": 6718,
      "_<w>範": 6719,
      "_<w>科": 6720,
      "_<w>而": 6721,
      "_<w>易": 6722,
      "_<w>见</w>": 6723,
      "_<w>禱</w>": 6724,
      "_<w>少": 6725,
      "_<w>壽": 6726,
      "_<w>命</w>": 6727,
      "_<w>东</w>": 6728,
      "_<w>什": 6729,
      "_<w>麼</w>": 6730,
      "_<w>敗": 6731,
      "_<w>則</w>": 6732,
      "_<w>言": 6733,
      "_<w>類</w>": 6734,
      "_<w>修</w>": 6735,
      "_<w>絕</w>": 6736,
      "_<w>互</w>": 6737,
      "_<w>计": 6738,
      "_<w>课</w>": 6739,
      "_<w>凯</w>": 6740,
      "_<w>靈": 6741,
      "_<w>汪</w>": 6742,
      "_<w>赶</w>": 6743,
      "_<w>妙</w>": 6744,
      "_<w>對</w>": 6745,
      "_<w>宿</w>": 6746,
      "_<w>亂</w>": 6747,
      "_<w>覺</w>": 6748,
      "_<w>顧</w>": 6749,
      "緬</w>": 6750,
      "_<w>日": 6751,
      "_<w>西</w>": 6752,
      "_<w>焰": 6753,
      "_<w>杯</w>": 6754,
      "_<w>耶": 6755,
      "_<w>雷</w>": 6756,
      "_<w>夫": 6757,
      "_<w>林</w>": 6758,
      "_<w>卡": 6759,
      "_<w>疊": 6760,
      "_<w>區": 6761,
      "_<w>陶</w>": 6762,
      "_<w>界</w>": 6763,
      "_<w>查</w>": 6764,
      "_<w>共": 6765,
      "_<w>產": 6766,
      "_<w>黨</w>": 6767,
      "_<w>英</w>": 6768,
      "_<w>墓</w>": 6769,
      "彙</w>": 6770,
      "_<w>石</w>": 6771,
      "_<w>学</w>": 6772,
      "_<w>鲁": 6773,
      "忒</w>": 6774,
      "_<w>高</w>": 6775,
      "_<w>部": 6776,
      "_<w>分</w>": 6777,
      "_<w>曼</w>": 6778,
      "_<w>愛": 6779,
      "_<w>膜": 6780,
      "_<w>炎</w>": 6781,
      "_<w>準": 6782,
      "_<w>养</w>": 6783,
      "_<w>悦</w>": 6784,
      "_<w>響</w>": 6785,
      "_<w>擊</w>": 6786,
      "_<w>迪</w>": 6787,
      "_<w>膜</w>": 6788,
      "_<w>沟</w>": 6789,
      "_<w>團</w>": 6790,
      "_<w>年</w>": 6791,
      "欽</w>": 6792,
      "_<w>拉": 6793,
      "_<w>邦</w>": 6794,
      "_<w>田": 6795,
      "_<w>美": 6796,
      "_<w>奈</w>": 6797,
      "_<w>付</w>": 6798,
      "_<w>停</w>": 6799,
      "_<w>實": 6800,
      "_<w>現</w>": 6801,
      "_<w>西": 6802,
      "_<w>綠</w>": 6803,
      "_<w>帕": 6804,
      "_<w>齊</w>": 6805,
      "_<w>彈</w>": 6806,
      "_<w>外</w>": 6807,
      "_<w>球": 6808,
      "_<w>星</w>": 6809,
      "_<w>百</w>": 6810,
      "_<w>良": 6811,
      "_<w>行": 6812,
      "_<w>为</w>": 6813,
      "_<w>决": 6814,
      "_<w>定": 6815,
      "_<w>他</w>": 6816,
      "_<w>承": 6817,
      "_<w>权</w>": 6818,
      "_<w>2</w>": 6819,
      "_<w>纳</w>": 6820,
      "_<w>相</w>": 6821,
      "_<w>叶</w>": 6822,
      "_<w>明</w>": 6823,
      "_<w>略</w>": 6824,
      "_<w>字</w>": 6825,
      "_<w>楠</w>": 6826,
      "_<w>成</w>": 6827,
      "_<w>的": 6828,
      "_<w>裳</w>": 6829,
      "_<w>曾": 6830,
      "_<w>經</w>": 6831,
      "錐</w>": 6832,
      "_<w>讓</w>": 6833,
      "_<w>特": 6834,
      "_<w>華</w>": 6835,
      "_<w>朋</w>": 6836,
      "_<w>運</w>": 6837,
      "_<w>喀": 6838,
      "_<w>裡</w>": 6839,
      "_<w>q</w>": 6840,
      "_<w>樂": 6841,
      "_<w>樹": 6842,
      "閘</w>": 6843,
      "_<w>德</w>": 6844,
      "_<w>有</w>": 6845,
      "_<w>决</w>": 6846,
      "_<w>五": 6847,
      "_<w>届</w>": 6848,
      "_<w>視": 6849,
      "_<w>类</w>": 6850,
      "_<w>務</w>": 6851,
      "_<w>決": 6852,
      "_<w>定</w>": 6853,
      "温</w>": 6854,
      "_<w>連</w>": 6855,
      "_<w>厚": 6856,
      "_<w>威</w>": 6857,
      "_<w>中</w>": 6858,
      "_<w>姆</w>": 6859,
      "_<w>方</w>": 6860,
      "_<w>乔</w>": 6861,
      "_<w>文": 6862,
      "_<w>希</w>": 6863,
      "_<w>庸</w>": 6864,
      "_<w>針</w>": 6865,
      "_<w>1</w>": 6866,
      "_<w>黃": 6867,
      "_<w>排</w>": 6868,
      "_<w>角</w>": 6869,
      "_<w>普": 6870,
      "_<w>微</w>": 6871,
      "_<w>久</w>": 6872,
      "_<w>價</w>": 6873,
      "_<w>娃</w>": 6874,
      "_<w>戟</w>": 6875,
      "率</w>": 6876,
      "_<w>乘</w>": 6877,
      "_<w>物": 6878,
      "_<w>義": 6879,
      "_<w>倫": 6880,
      "_<w>理</w>": 6881,
      "_<w>存</w>": 6882,
      "_<w>桐</w>": 6883,
      "_<w>豬</w>": 6884,
      "_<w>菌</w>": 6885,
      "_<w>便": 6886,
      "_<w>問</w>": 6887,
      "_<w>茲": 6888,
      "_<w>貿": 6889,
      "_<w>易</w>": 6890,
      "_<w>洛</w>": 6891,
      "_<w>內": 6892,
      "_<w>涵</w>": 6893,
      "_<w>以</w>": 6894,
      "鎢</w>": 6895,
      "_<w>耳": 6896,
      "_<w>其": 6897,
      "_<w>别</w>": 6898,
      "_<w>黨": 6899,
      "_<w>制</w>": 6900,
      "_<w>艦</w>": 6901,
      "_<w>蘭</w>": 6902,
      "_<w>員": 6903,
      "_<w>反</w>": 6904,
      "_<w>视</w>": 6905,
      "_<w>灵</w>": 6906,
      "_<w>教</w>": 6907,
      "_<w>洛": 6908,
      "_<w>費": 6909,
      "_<w>瑪": 6910,
      "_<w>兒</w>": 6911,
      "_<w>舞": 6912,
      "_<w>場</w>": 6913,
      "_<w>盤</w>": 6914,
      "_<w>杜</w>": 6915,
      "_<w>雅</w>": 6916,
      "_<w>环": 6917,
      "_<w>赛</w>": 6918,
      "_<w>味</w>": 6919,
      "_<w>欣</w>": 6920,
      "_<w>毅</w>": 6921,
      "_<w>壽</w>": 6922,
      "_<w>度</w>": 6923,
      "_<w>势</w>": 6924,
      "_<w>内": 6925,
      "_<w>湖</w>": 6926,
      "家</w>": 6927,
      "装</w>": 6928,
      "_<w>權</w>": 6929,
      "_<w>障</w>": 6930,
      "_<w>加</w>": 6931,
      "_<w>元": 6932,
      "_<w>作</w>": 6933,
      "_<w>泰": 6934,
      "_<w>羅": 6935,
      "_<w>博": 6936,
      "_<w>夫</w>": 6937,
      "_<w>哈</w>": 6938,
      "_<w>志": 6939,
      "_<w>穎</w>": 6940,
      "_<w>是</w>": 6941,
      "_<w>广": 6942,
      "_<w>播</w>": 6943,
      "_<w>向</w>": 6944,
      "_<w>角": 6945,
      "_<w>级</w>": 6946,
      "_<w>民": 6947,
      "_<w>币</w>": 6948,
      "_<w>運": 6949,
      "_<w>動</w>": 6950,
      "_<w>數</w>": 6951,
      "_<w>襲": 6952,
      "_<w>莎": 6953,
      "_<w>兰</w>": 6954,
      "_<w>馮</w>": 6955,
      "_<w>萬": 6956,
      "_<w>隆</w>": 6957,
      "哇</w>": 6958,
      "賴</w>": 6959,
      "_<w>下": 6960,
      "_<w>馬</w>": 6961,
      "_<w>里": 6962,
      "_<w>碑</w>": 6963,
      "_<w>稅</w>": 6964,
      "_<w>件</w>": 6965,
      "_<w>容</w>": 6966,
      "_<w>配": 6967,
      "_<w>情": 6968,
      "_<w>况</w>": 6969,
      "_<w>型</w>": 6970,
      "_<w>虑</w>": 6971,
      "便</w>": 6972,
      "_<w>生": 6973,
      "_<w>变": 6974,
      "_<w>化</w>": 6975,
      "_<w>寫</w>": 6976,
      "_<w>化": 6977,
      "_<w>著": 6978,
      "_<w>代</w>": 6979,
      "_<w>籽": 6980,
      "_<w>油</w>": 6981,
      "_<w>万": 6982,
      "_<w>诺": 6983,
      "_<w>维": 6984,
      "_<w>奇</w>": 6985,
      "_<w>苓</w>": 6986,
      "_<w>气": 6987,
      "_<w>管</w>": 6988,
      "_<w>食</w>": 6989,
      "_<w>表": 6990,
      "_<w>团</w>": 6991,
      "_<w>州": 6992,
      "_<w>牌</w>": 6993,
      "_<w>员</w>": 6994,
      "屎</w>": 6995,
      "_<w>线</w>": 6996,
      "_<w>蒙</w>": 6997,
      "_<w>层</w>": 6998,
      "_<w>鋁</w>": 6999,
      "_<w>號</w>": 7000,
      "_<w>楚</w>": 7001,
      "_<w>港</w>": 7002,
      "_<w>倒</w>": 7003,
      "_<w>觉</w>": 7004,
      "_<w>仇": 7005,
      "_<w>面</w>": 7006,
      "_<w>畢": 7007,
      "_<w>業</w>": 7008,
      "_<w>樹</w>": 7009,
      "_<w>利</w>": 7010,
      "_<w>納</w>": 7011,
      "_<w>象": 7012,
      "_<w>名": 7013,
      "_<w>词</w>": 7014,
      "_<w>編</w>": 7015,
      "_<w>群</w>": 7016,
      "_<w>索</w>": 7017,
      "_<w>联</w>": 7018,
      "_<w>育</w>": 7019,
      "_<w>加": 7020,
      "_<w>末</w>": 7021,
      "_<w>砍": 7022,
      "_<w>蘇</w>": 7023,
      "_<w>陽": 7024,
      "_<w>手</w>": 7025,
      "_<w>代": 7026,
      "_<w>下</w>": 7027,
      "_<w>杆</w>": 7028,
      "_<w>赫": 7029,
      "_<w>茲</w>": 7030,
      "_<w>任</w>": 7031,
      "_<w>地": 7032,
      "_<w>用</w>": 7033,
      "_<w>事</w>": 7034,
      "_<w>氏</w>": 7035,
      "_<w>尔</w>": 7036,
      "_<w>宵</w>": 7037,
      "_<w>滾</w>": 7038,
      "_<w>胡": 7039,
      "_<w>安</w>": 7040,
      "_<w>周": 7041,
      "_<w>血</w>": 7042,
      "_<w>際</w>": 7043,
      "_<w>紀": 7044,
      "_<w>據</w>": 7045,
      "_<w>開": 7046,
      "_<w>始</w>": 7047,
      "_<w>航": 7048,
      "_<w>局</w>": 7049,
      "_<w>政": 7050,
      "_<w>學": 7051,
      "_<w>際": 7052,
      "_<w>丹": 7053,
      "嗣</w>": 7054,
      "_<w>上</w>": 7055,
      "_<w>倾": 7056,
      "_<w>斜</w>": 7057,
      "_<w>国</w>": 7058,
      "_<w>刊</w>": 7059,
      "_<w>名</w>": 7060,
      "_<w>副</w>": 7061,
      "_<w>济</w>": 7062,
      "_<w>論": 7063,
      "_<w>賽</w>": 7064,
      "_<w>樣</w>": 7065,
      "_<w>求</w>": 7066,
      "_<w>基": 7067,
      "_<w>础</w>": 7068,
      "_<w>魯": 7069,
      "_<w>沃</w>": 7070,
      "_<w>拜</w>": 7071,
      "_<w>選</w>": 7072,
      "穂</w>": 7073,
      "_<w>培</w>": 7074,
      "褥</w>": 7075,
      "岗</w>": 7076,
      "_<w>俗": 7077,
      "_<w>习": 7078,
      "_<w>惯</w>": 7079,
      "_<w>礼</w>": 7080,
      "_<w>取</w>": 7081,
      "_<w>来</w>": 7082,
      "_<w>司": 7083,
      "_<w>法</w>": 7084,
      "_<w>辦</w>": 7085,
      "_<w>欖": 7086,
      "_<w>岡</w>": 7087,
      "_<w>疆</w>": 7088,
      "_<w>道": 7089,
      "_<w>小": 7090,
      "_<w>妮</w>": 7091,
      "_<w>多": 7092,
      "_<w>燃": 7093,
      "_<w>機</w>": 7094,
      "_<w>吉": 7095,
      "_<w>認</w>": 7096,
      "_<w>治": 7097,
      "_<w>坡</w>": 7098,
      "_<w>倫</w>": 7099,
      "_<w>漣</w>": 7100,
      "_<w>獵</w>": 7101,
      "_<w>片</w>": 7102,
      "_<w>田</w>": 7103,
      "_<w>尼</w>": 7104,
      "_<w>亚": 7105,
      "_<w>布</w>": 7106,
      "_<w>傭": 7107,
      "_<w>兵</w>": 7108,
      "_<w>馨</w>": 7109,
      "_<w>运</w>": 7110,
      "_<w>系</w>": 7111,
      "_<w>典": 7112,
      "_<w>艺": 7113,
      "_<w>术</w>": 7114,
      "_<w>買": 7115,
      "_<w>捷</w>": 7116,
      "_<w>乏": 7117,
      "_<w>自": 7118,
      "_<w>信</w>": 7119,
      "_<w>径</w>": 7120,
      "_<w>潛": 7121,
      "_<w>艇</w>": 7122,
      "_<w>悄</w>": 7123,
      "_<w>準</w>": 7124,
      "_<w>貴</w>": 7125,
      "_<w>軍": 7126,
      "_<w>帥</w>": 7127,
      "_<w>宮</w>": 7128,
      "_<w>重</w>": 7129,
      "_<w>白</w>": 7130,
      "戯</w>": 7131,
      "_<w>具": 7132,
      "_<w>栏</w>": 7133,
      "_<w>生</w>": 7134,
      "_<w>萬</w>": 7135,
      "_<w>史": 7136,
      "_<w>童</w>": 7137,
      "_<w>叶": 7138,
      "_<w>補": 7139,
      "_<w>充</w>": 7140,
      "_<w>念": 7141,
      "_<w>品</w>": 7142,
      "_<w>洞</w>": 7143,
      "_<w>年": 7144,
      "_<w>兹": 7145,
      "_<w>武</w>": 7146,
      "_<w>双</w>": 7147,
      "_<w>贏</w>": 7148,
      "_<w>冰</w>": 7149,
      "夏</w>": 7150,
      "_<w>婚</w>": 7151,
      "_<w>輸": 7152,
      "油</w>": 7153,
      "懾</w>": 7154,
      "_<w>渗": 7155,
      "_<w>透</w>": 7156,
      "辺</w>": 7157,
      "_<w>版</w>": 7158,
      "_<w>照</w>": 7159,
      "_<w>怀": 7160,
      "_<w>計</w>": 7161,
      "_<w>口": 7162,
      "_<w>水</w>": 7163,
      "_<w>急</w>": 7164,
      "_<w>道</w>": 7165,
      "_<w>雪": 7166,
      "_<w>甸": 7167,
      "_<w>妇</w>": 7168,
      "_<w>梨": 7169,
      "_<w>天</w>": 7170,
      "_<w>血": 7171,
      "_<w>热</w>": 7172,
      "_<w>權": 7173,
      "_<w>限</w>": 7174,
      "_<w>到": 7175,
      "_<w>疲": 7176,
      "_<w>倦</w>": 7177,
      "_<w>律": 7178,
      "_<w>宾": 7179,
      "_<w>塞": 7180,
      "_<w>餘": 7181,
      "_<w>古": 7182,
      "_<w>风</w>": 7183,
      "_<w>发": 7184,
      "_<w>于</w>": 7185,
      "_<w>頭</w>": 7186,
      "_<w>藝": 7187,
      "_<w>術": 7188,
      "_<w>貓</w>": 7189,
      "_<w>伯": 7190,
      "_<w>選": 7191,
      "_<w>会": 7192,
      "_<w>民</w>": 7193,
      "_<w>压</w>": 7194,
      "曇</w>": 7195,
      "_<w>家": 7196,
      "_<w>合</w>": 7197,
      "_<w>練": 7198,
      "_<w>得</w>": 7199,
      "_<w>望": 7200,
      "轻</w>": 7201,
      "_<w>罗</w>": 7202,
      "_<w>隊</w>": 7203,
      "_<w>桑": 7204,
      "_<w>帕</w>": 7205,
      "_<w>材</w>": 7206,
      "_<w>液</w>": 7207,
      "丸</w>": 7208,
      "_<w>学": 7209,
      "_<w>众</w>": 7210,
      "_<w>议</w>": 7211,
      "_<w>競</w>": 7212,
      "_<w>海</w>": 7213,
      "_<w>样": 7214,
      "_<w>赛": 7215,
      "_<w>南</w>": 7216,
      "_<w>帖</w>": 7217,
      "_<w>接": 7218,
      "_<w>口</w>": 7219,
      "_<w>可": 7220,
      "_<w>之": 7221,
      "_<w>宝</w>": 7222,
      "_<w>满</w>": 7223,
      "_<w>问</w>": 7224,
      "_<w>位</w>": 7225,
      "_<w>塔</w>": 7226,
      "_<w>衝": 7227,
      "_<w>力</w>": 7228,
      "街</w>": 7229,
      "_<w>診</w>": 7230,
      "_<w>令</w>": 7231,
      "_<w>兰": 7232,
      "_<w>責": 7233,
      "_<w>陸</w>": 7234,
      "_<w>诺</w>": 7235,
      "_<w>們</w>": 7236,
      "_<w>慧": 7237,
      "_<w>君</w>": 7238,
      "_<w>技": 7239,
      "_<w>術</w>": 7240,
      "_<w>相": 7241,
      "_<w>传</w>": 7242,
      "_<w>月</w>": 7243,
      "_<w>廣": 7244,
      "塢</w>": 7245,
      "_<w>根</w>": 7246,
      "_<w>扎</w>": 7247,
      "_<w>空</w>": 7248,
      "_<w>舜</w>": 7249,
      "_<w>打</w>": 7250,
      "爪</w>": 7251,
      "_<w>集</w>": 7252,
      "_<w>际": 7253,
      "_<w>品": 7254,
      "_<w>鞍": 7255,
      "_<w>山": 7256,
      "_<w>藏</w>": 7257,
      "_<w>额</w>": 7258,
      "_<w>層</w>": 7259,
      "_<w>賽": 7260,
      "_<w>龍</w>": 7261,
      "_<w>号</w>": 7262,
      "_<w>尾</w>": 7263,
      "_<w>司</w>": 7264,
      "_<w>膽</w>": 7265,
      "_<w>比": 7266,
      "_<w>场</w>": 7267,
      "_<w>無": 7268,
      "_<w>夜</w>": 7269,
      "_<w>伤</w>": 7270,
      "_<w>條</w>": 7271,
      "_<w>笛</w>": 7272,
      "_<w>券</w>": 7273,
      "_<w>子": 7274,
      "_<w>路</w>": 7275,
      "_<w>今": 7276,
      "_<w>为": 7277,
      "_<w>止</w>": 7278,
      "鋏</w>": 7279,
      "_<w>井": 7280,
      "_<w>松": 7281,
      "_<w>天": 7282,
      "_<w>白": 7283,
      "_<w>日</w>": 7284,
      "_<w>節</w>": 7285,
      "_<w>冒": 7286,
      "_<w>梯</w>": 7287,
      "_<w>還</w>": 7288,
      "_<w>堵</w>": 7289,
      "_<w>喊</w>": 7290,
      "_<w>将</w>": 7291,
      "完</w>": 7292,
      "_<w>杠</w>": 7293,
      "_<w>聊</w>": 7294,
      "_<w>草</w>": 7295,
      "村</w>": 7296,
      "_<w>行</w>": 7297,
      "_<w>难": 7298,
      "_<w>寶": 7299,
      "_<w>罗": 7300,
      "_<w>造</w>": 7301,
      "_<w>為</w>": 7302,
      "_<w>击</w>": 7303,
      "_<w>诊": 7304,
      "_<w>所</w>": 7305,
      "_<w>携": 7306,
      "_<w>受</w>": 7307,
      "_<w>憂</w>": 7308,
      "_<w>屬</w>": 7309,
      "_<w>园</w>": 7310,
      "_<w>走</w>": 7311,
      "_<w>扁</w>": 7312,
      "_<w>削</w>": 7313,
      "_<w>茹</w>": 7314,
      "_<w>征</w>": 7315,
      "_<w>柳": 7316,
      "_<w>音</w>": 7317,
      "_<w>牙</w>": 7318,
      "_<w>館</w>": 7319,
      "_<w>本": 7320,
      "_<w>載": 7321,
      "_<w>線</w>": 7322,
      "_<w>薩": 7323,
      "_<w>针</w>": 7324,
      "_<w>贤</w>": 7325,
      "_<w>卡</w>": 7326,
      "_<w>顶</w>": 7327,
      "_<w>慮": 7328,
      "_<w>木": 7329,
      "_<w>升": 7330,
      "_<w>机</w>": 7331,
      "_<w>姆": 7332,
      "_<w>森</w>": 7333,
      "奥</w>": 7334,
      "_<w>丽": 7335,
      "_<w>时</w>": 7336,
      "_<w>汉</w>": 7337,
      "_<w>痛</w>": 7338,
      "_<w>渡</w>": 7339,
      "_<w>桂</w>": 7340,
      "_<w>玛": 7341,
      "_<w>曼": 7342,
      "_<w>希": 7343,
      "_<w>美</w>": 7344,
      "_<w>泽</w>": 7345,
      "_<w>壇</w>": 7346,
      "_<w>骨": 7347,
      "_<w>圖</w>": 7348,
      "_<w>量</w>": 7349,
      "燙</w>": 7350,
      "_<w>先</w>": 7351,
      "_<w>滋": 7352,
      "_<w>病</w>": 7353,
      "_<w>入</w>": 7354,
      "_<w>擊": 7355,
      "_<w>质</w>": 7356,
      "_<w>男": 7357,
      "_<w>孩</w>": 7358,
      "_<w>酸": 7359,
      "_<w>莲</w>": 7360,
      "_<w>秤</w>": 7361,
      "_<w>电</w>": 7362,
      "_<w>景": 7363,
      "_<w>带</w>": 7364,
      "_<w>不": 7365,
      "_<w>需</w>": 7366,
      "_<w>欧": 7367,
      "_<w>杖</w>": 7368,
      "_<w>納": 7369,
      "_<w>椒": 7370,
      "_<w>当</w>": 7371,
      "_<w>甲": 7372,
      "_<w>棲": 7373,
      "_<w>息</w>": 7374,
      "_<w>主": 7375,
      "_<w>党</w>": 7376,
      "_<w>猫</w>": 7377,
      "_<w>簽": 7378,
      "_<w>署</w>": 7379,
      "_<w>达": 7380,
      "_<w>破": 7381,
      "_<w>秒</w>": 7382,
      "_<w>察": 7383,
      "_<w>乾</w>": 7384,
      "_<w>皮</w>": 7385,
      "_<w>了</w>": 7386,
      "_<w>随": 7387,
      "_<w>商": 7388,
      "_<w>求": 7389,
      "_<w>束": 7390,
      "_<w>譚</w>": 7391,
      "_<w>次": 7392,
      "_<w>訪</w>": 7393,
      "_<w>認": 7394,
      "_<w>喬": 7395,
      "_<w>喬</w>": 7396,
      "_<w>寶</w>": 7397,
      "_<w>音": 7398,
      "_<w>或": 7399,
      "_<w>濟</w>": 7400,
      "_<w>統": 7401,
      "_<w>宁</w>": 7402,
      "_<w>畫</w>": 7403,
      "_<w>軌</w>": 7404,
      "_<w>由": 7405,
      "_<w>瑟</w>": 7406,
      "_<w>庫</w>": 7407,
      "_<w>久": 7408,
      "_<w>閭": 7409,
      "_<w>諧</w>": 7410,
      "_<w>風</w>": 7411,
      "_<w>參</w>": 7412,
      "_<w>数</w>": 7413,
      "_<w>由</w>": 7414,
      "_<w>話</w>": 7415,
      "_<w>张": 7416,
      "_<w>局": 7417,
      "_<w>通": 7418,
      "_<w>緝</w>": 7419,
      "_<w>厥": 7420,
      "_<w>塊</w>": 7421,
      "倭</w>": 7422,
      "_<w>兹</w>": 7423,
      "_<w>树</w>": 7424,
      "_<w>纳": 7425,
      "_<w>蒂</w>": 7426,
      "_<w>教": 7427,
      "_<w>語": 7428,
      "_<w>枝": 7429,
      "_<w>玉": 7430,
      "_<w>孽</w>": 7431,
      "_<w>柱</w>": 7432,
      "_<w>工</w>": 7433,
      "_<w>往</w>": 7434,
      "_<w>伍</w>": 7435,
      "_<w>黛": 7436,
      "_<w>秋</w>": 7437,
      "_<w>柏": 7438,
      "_<w>勃</w>": 7439,
      "_<w>木</w>": 7440,
      "柬</w>": 7441,
      "鑊</w>": 7442,
      "_<w>護": 7443,
      "_<w>板</w>": 7444,
      "_<w>塊": 7445,
      "_<w>裝</w>": 7446,
      "_<w>先": 7447,
      "_<w>見</w>": 7448,
      "證</w>": 7449,
      "_<w>戶</w>": 7450,
      "_<w>北": 7451,
      "_<w>米</w>": 7452,
      "_<w>篇": 7453,
      "_<w>说</w>": 7454,
      "_<w>分": 7455,
      "_<w>仪</w>": 7456,
      "_<w>訓": 7457,
      "_<w>練</w>": 7458,
      "_<w>个": 7459,
      "_<w>世": 7460,
      "_<w>纪</w>": 7461,
      "_<w>影</w>": 7462,
      "_<w>瞰</w>": 7463,
      "_<w>远</w>": 7464,
      "_<w>薩</w>": 7465,
      "_<w>翼</w>": 7466,
      "_<w>網": 7467,
      "_<w>絡</w>": 7468,
      "鄭</w>": 7469,
      "_<w>潔</w>": 7470,
      "_<w>人": 7471,
      "_<w>淚</w>": 7472,
      "_<w>麗": 7473,
      "_<w>敏</w>": 7474,
      "_<w>達</w>": 7475,
      "_<w>报</w>": 7476,
      "_<w>躍": 7477,
      "_<w>輯</w>": 7478,
      "_<w>養</w>": 7479,
      "_<w>果": 7480,
      "_<w>表</w>": 7481,
      "_<w>發": 7482,
      "_<w>展</w>": 7483,
      "_<w>實</w>": 7484,
      "_<w>鲁</w>": 7485,
      "_<w>脂": 7486,
      "_<w>腺</w>": 7487,
      "_<w>世</w>": 7488,
      "_<w>骼</w>": 7489,
      "_<w>較</w>": 7490,
      "_<w>羽</w>": 7491,
      "_<w>望</w>": 7492,
      "_<w>火": 7493,
      "_<w>车</w>": 7494,
      "_<w>陵</w>": 7495,
      "_<w>起</w>": 7496,
      "_<w>任": 7497,
      "_<w>濕</w>": 7498,
      "_<w>贿</w>": 7499,
      "_<w>脉": 7500,
      "_<w>梅": 7501,
      "_<w>炳</w>": 7502,
      "_<w>脫</w>": 7503,
      "_<w>季": 7504,
      "_<w>运": 7505,
      "_<w>动</w>": 7506,
      "_<w>国": 7507,
      "_<w>伦": 7508,
      "_<w>敦</w>": 7509,
      "_<w>錫": 7510,
      "恛</w>": 7511,
      "_<w>鞋</w>": 7512,
      "舗</w>": 7513,
      "_<w>晓": 7514,
      "_<w>終</w>": 7515,
      "_<w>得": 7516,
      "_<w>强": 7517,
      "_<w>槍": 7518,
      "_<w>魚</w>": 7519,
      "_<w>敵</w>": 7520,
      "_<w>時</w>": 7521,
      "_<w>韓</w>": 7522,
      "_<w>丝</w>": 7523,
      "晶</w>": 7524,
      "_<w>妮": 7525,
      "_<w>聖": 7526,
      "_<w>僅</w>": 7527,
      "_<w>葉": 7528,
      "_<w>雷": 7529,
      "_<w>約</w>": 7530,
      "_<w>订</w>": 7531,
      "_<w>净": 7532,
      "_<w>礁</w>": 7533,
      "_<w>緩</w>": 7534,
      "_<w>遠": 7535,
      "_<w>火</w>": 7536,
      "_<w>健</w>": 7537,
      "_<w>率</w>": 7538,
      "_<w>瓦</w>": 7539,
      "_<w>徵": 7540,
      "_<w>區</w>": 7541,
      "_<w>致</w>": 7542,
      "换</w>": 7543,
      "_<w>央": 7544,
      "_<w>报": 7545,
      "_<w>俐</w>": 7546,
      "_<w>劍</w>": 7547,
      "_<w>幸</w>": 7548,
      "_<w>沃": 7549,
      "_<w>关</w>": 7550,
      "_<w>流": 7551,
      "_<w>士</w>": 7552,
      "_<w>離</w>": 7553,
      "_<w>茂</w>": 7554,
      "_<w>十": 7555,
      "_<w>八</w>": 7556,
      "_<w>辟</w>": 7557,
      "_<w>回</w>": 7558,
      "_<w>京</w>": 7559,
      "_<w>晶</w>": 7560,
      "_<w>鸡</w>": 7561,
      "_<w>根": 7562,
      "_<w>海": 7563,
      "_<w>灯</w>": 7564,
      "_<w>扎": 7565,
      "_<w>包": 7566,
      "_<w>商</w>": 7567,
      "_<w>言</w>": 7568,
      "_<w>事": 7569,
      "_<w>律</w>": 7570,
      "鈣</w>": 7571,
      "_<w>居": 7572,
      "_<w>弦</w>": 7573,
      "_<w>幟</w>": 7574,
      "_<w>竹": 7575,
      "姫</w>": 7576,
      "_<w>略": 7577,
      "_<w>棒</w>": 7578,
      "_<w>堡</w>": 7579,
      "_<w>边</w>": 7580,
      "_<w>少</w>": 7581,
      "_<w>叫</w>": 7582,
      "_<w>爛</w>": 7583,
      "_<w>普</w>": 7584,
      "_<w>亮</w>": 7585,
      "_<w>时": 7586,
      "_<w>间</w>": 7587,
      "_<w>閉</w>": 7588,
      "_<w>佩": 7589,
      "_<w>慈</w>": 7590,
      "_<w>什</w>": 7591,
      "_<w>野</w>": 7592,
      "_<w>體</w>": 7593,
      "_<w>站": 7594,
      "_<w>密": 7595,
      "_<w>講</w>": 7596,
      "_<w>祥</w>": 7597,
      "_<w>從</w>": 7598,
      "_<w>議": 7599,
      "_<w>哥</w>": 7600,
      "_<w>辑": 7601,
      "_<w>堂": 7602,
      "斐</w>": 7603,
      "_<w>终</w>": 7604,
      "_<w>激</w>": 7605,
      "_<w>陵": 7606,
      "_<w>沙": 7607,
      "_<w>伊": 7608,
      "_<w>始": 7609,
      "_<w>皇": 7610,
      "_<w>東</w>": 7611,
      "_<w>馆</w>": 7612,
      "_<w>灰": 7613,
      "_<w>階": 7614,
      "_<w>短</w>": 7615,
      "_<w>積": 7616,
      "_<w>平</w>": 7617,
      "_<w>記</w>": 7618,
      "_<w>状</w>": 7619,
      "_<w>然": 7620,
      "_<w>衛": 7621,
      "_<w>肺": 7622,
      "_<w>傳</w>": 7623,
      "責</w>": 7624,
      "_<w>业": 7625,
      "_<w>謙</w>": 7626,
      "挖</w>": 7627,
      "_<w>瑜": 7628,
      "_<w>派</w>": 7629,
      "_<w>空": 7630,
      "_<w>公": 7631,
      "_<w>标</w>": 7632,
      "_<w>瓦": 7633,
      "_<w>图": 7634,
      "_<w>议": 7635,
      "_<w>会</w>": 7636,
      "_<w>廳</w>": 7637,
      "_<w>厉</w>": 7638,
      "_<w>古</w>": 7639,
      "_<w>帶</w>": 7640,
      "脑</w>": 7641,
      "_<w>內</w>": 7642,
      "_<w>近</w>": 7643,
      "_<w>夢</w>": 7644,
      "_<w>围</w>": 7645,
      "_<w>項</w>": 7646,
      "_<w>管": 7647,
      "_<w>蒙": 7648,
      "_<w>功</w>": 7649,
      "_<w>匿</w>": 7650,
      "_<w>耀": 7651,
      "_<w>野": 7652,
      "_<w>库</w>": 7653,
      "_<w>默</w>": 7654,
      "顺</w>": 7655,
      "_<w>资": 7656,
      "_<w>收": 7657,
      "_<w>益</w>": 7658,
      "_<w>着</w>": 7659,
      "_<w>川": 7660,
      "_<w>二": 7661,
      "_<w>张</w>": 7662,
      "_<w>韋</w>": 7663,
      "_<w>果</w>": 7664,
      "_<w>债</w>": 7665,
      "_<w>自</w>": 7666,
      "_<w>保</w>": 7667,
      "_<w>集": 7668,
      "_<w>蛋</w>": 7669,
      "_<w>毒</w>": 7670,
      "_<w>邊": 7671,
      "_<w>潤</w>": 7672,
      "_<w>霾</w>": 7673,
      "育</w>": 7674,
      "_<w>據": 7675,
      "_<w>莎</w>": 7676,
      "_<w>腸</w>": 7677,
      "_<w>溶": 7678,
      "_<w>膠</w>": 7679,
      "_<w>菇</w>": 7680,
      "_<w>马": 7681,
      "_<w>盈</w>": 7682,
      "_<w>導": 7683,
      "_<w>約": 7684,
      "_<w>影": 7685,
      "_<w>塞</w>": 7686,
      "諒</w>": 7687,
      "_<w>魯</w>": 7688,
      "_<w>圍</w>": 7689,
      "_<w>莫": 7690,
      "_<w>漢</w>": 7691,
      "_<w>碼": 7692,
      "_<w>器</w>": 7693,
      "狄</w>": 7694,
      "_<w>械": 7695,
      "_<w>振": 7696,
      "_<w>三": 7697,
      "_<w>卷</w>": 7698,
      "_<w>院</w>": 7699,
      "_<w>面": 7700,
      "_<w>境</w>": 7701,
      "_<w>予</w>": 7702,
      "_<w>杂</w>": 7703,
      "_<w>豪</w>": 7704,
      "_<w>残": 7705,
      "_<w>渣</w>": 7706,
      "_<w>璃": 7707,
      "_<w>厂</w>": 7708,
      "_<w>刺</w>": 7709,
      "_<w>立": 7710,
      "_<w>進": 7711,
      "維</w>": 7712,
      "_<w>祖": 7713,
      "_<w>都": 7714,
      "閱</w>": 7715,
      "_<w>腔": 7716,
      "_<w>疾": 7717,
      "_<w>勝</w>": 7718,
      "_<w>马</w>": 7719,
      "_<w>鹳</w>": 7720,
      "_<w>缸</w>": 7721,
      "_<w>埃</w>": 7722,
      "資</w>": 7723,
      "_<w>风": 7724,
      "_<w>险</w>": 7725,
      "_<w>數": 7726,
      "_<w>帜</w>": 7727,
      "_<w>宏</w>": 7728,
      "粥</w>": 7729,
      "_<w>圃</w>": 7730,
      "_<w>腹</w>": 7731,
      "_<w>嫩": 7732,
      "_<w>側</w>": 7733,
      "_<w>換": 7734,
      "俱</w>": 7735,
      "_<w>害</w>": 7736,
      "_<w>瓜</w>": 7737,
      "_<w>艾": 7738,
      "琅</w>": 7739,
      "_<w>者": 7740,
      "警</w>": 7741,
      "_<w>金": 7742,
      "_<w>體": 7743,
      "_<w>肯</w>": 7744,
      "_<w>才</w>": 7745,
      "_<w>町": 7746,
      "_<w>实</w>": 7747,
      "訊</w>": 7748,
      "_<w>落</w>": 7749,
      "_<w>肩</w>": 7750,
      "_<w>支</w>": 7751,
      "_<w>顏": 7752,
      "_<w>旻</w>": 7753,
      "_<w>懷": 7754,
      "_<w>諸</w>": 7755,
      "_<w>函</w>": 7756,
      "_<w>兒": 7757,
      "_<w>擇</w>": 7758,
      "_<w>难</w>": 7759,
      "_<w>树": 7760,
      "_<w>乐</w>": 7761,
      "_<w>龍": 7762,
      "_<w>榜": 7763,
      "_<w>杰</w>": 7764,
      "_<w>免</w>": 7765,
      "_<w>莱</w>": 7766,
      "_<w>还": 7767,
      "_<w>给</w>": 7768,
      "_<w>頻": 7769,
      "_<w>结": 7770,
      "_<w>版": 7771,
      "_<w>林": 7772,
      "_<w>鹿</w>": 7773,
      "_<w>深</w>": 7774,
      "_<w>服</w>": 7775,
      "_<w>個</w>": 7776,
      "_<w>森": 7777,
      "_<w>买</w>": 7778,
      "_<w>目</w>": 7779,
      "_<w>麥": 7780,
      "_<w>析</w>": 7781,
      "_<w>鯨": 7782,
      "_<w>軸</w>": 7783,
      "_<w>省</w>": 7784,
      "_<w>墳</w>": 7785,
      "_<w>穆": 7786,
      "_<w>延</w>": 7787,
      "_<w>扈</w>": 7788,
      "_<w>昆</w>": 7789,
      "_<w>播": 7790,
      "_<w>理": 7791,
      "_<w>朗": 7792,
      "_<w>戈</w>": 7793,
      "_<w>連": 7794,
      "_<w>太": 7795,
      "_<w>过</w>": 7796,
      "_<w>失</w>": 7797,
      "_<w>態</w>": 7798,
      "_<w>建</w>": 7799,
      "_<w>屬": 7800,
      "_<w>桿</w>": 7801,
      "_<w>协": 7802,
      "_<w>侶</w>": 7803,
      "_<w>述": 7804,
      "_<w>坚": 7805,
      "_<w>强</w>": 7806,
      "_<w>男</w>": 7807,
      "_<w>质": 7808,
      "_<w>暴</w>": 7809,
      "_<w>铁</w>": 7810,
      "_<w>標</w>": 7811,
      "_<w>掛</w>": 7812,
      "_<w>鐵": 7813,
      "_<w>盧": 7814,
      "_<w>親</w>": 7815,
      "犹</w>": 7816,
      "_<w>语": 7817,
      "_<w>史</w>": 7818,
      "_<w>价": 7819,
      "_<w>值</w>": 7820,
      "_<w>早</w>": 7821,
      "會</w>": 7822,
      "_<w>源</w>": 7823,
      "_<w>动": 7824,
      "_<w>声</w>": 7825,
      "_<w>切</w>": 7826,
      "_<w>出": 7827,
      "_<w>永</w>": 7828,
      "_<w>溪": 7829,
      "_<w>等</w>": 7830,
      "_<w>邦": 7831,
      "_<w>營</w>": 7832,
      "_<w>豆</w>": 7833,
      "_<w>開</w>": 7834,
      "_<w>限": 7835,
      "_<w>稱</w>": 7836,
      "_<w>女</w>": 7837,
      "_<w>菲": 7838,
      "_<w>變</w>": 7839,
      "_<w>台": 7840,
      "_<w>震</w>": 7841,
      "聰</w>": 7842,
      "_<w>當</w>": 7843,
      "_<w>兩": 7844,
      "_<w>種": 7845,
      "_<w>岛</w>": 7846,
      "_<w>哈": 7847,
      "_<w>有": 7848,
      "_<w>繼</w>": 7849,
      "_<w>登": 7850,
      "_<w>轉": 7851,
      "_<w>演": 7852,
      "篭</w>": 7853,
      "_<w>误</w>": 7854,
      "_<w>這": 7855,
      "_<w>種</w>": 7856,
      "_<w>救</w>": 7857,
      "_<w>笑</w>": 7858,
      "_<w>饱</w>": 7859,
      "_<w>狗</w>": 7860,
      "_<w>写": 7861,
      "_<w>字": 7862,
      "_<w>母</w>": 7863,
      "_<w>佐": 7864,
      "_<w>助</w>": 7865,
      "_<w>线": 7866,
      "_<w>票</w>": 7867,
      "_<w>离": 7868,
      "_<w>費</w>": 7869,
      "_<w>驟</w>": 7870,
      "_<w>冕": 7871,
      "_<w>冠</w>": 7872,
      "_<w>性": 7873,
      "_<w>腺": 7874,
      "_<w>契</w>": 7875,
      "_<w>舌": 7876,
      "_<w>聯": 7877,
      "_<w>料</w>": 7878,
      "_<w>慎</w>": 7879,
      "_<w>阿": 7880,
      "_<w>凡</w>": 7881,
      "_<w>江": 7882,
      "_<w>堰</w>": 7883,
      "黯</w>": 7884,
      "_<w>历</w>": 7885,
      "_<w>辛": 7886,
      "_<w>觀</w>": 7887,
      "_<w>龙</w>": 7888,
      "_<w>沙</w>": 7889,
      "_<w>訴</w>": 7890,
      "_<w>孙</w>": 7891,
      "_<w>续": 7892,
      "_<w>段</w>": 7893,
      "_<w>打": 7894,
      "_<w>印": 7895,
      "竹</w>": 7896,
      "_<w>豹</w>": 7897,
      "_<w>踪</w>": 7898,
      "_<w>橙</w>": 7899,
      "_<w>勃": 7900,
      "_<w>燃</w>": 7901,
      "_<w>远": 7902,
      "_<w>快": 7903,
      "_<w>战</w>": 7904,
      "_<w>時": 7905,
      "_<w>朝</w>": 7906,
      "_<w>昌</w>": 7907,
      "_<w>百": 7908,
      "_<w>貨</w>": 7909,
      "_<w>度": 7910,
      "塔</w>": 7911,
      "_<w>茨</w>": 7912,
      "_<w>信": 7913,
      "_<w>疑</w>": 7914,
      "_<w>彻": 7915,
      "_<w>脉</w>": 7916,
      "_<w>沸": 7917,
      "_<w>井</w>": 7918,
      "_<w>界": 7919,
      "_<w>台</w>": 7920,
      "_<w>奥</w>": 7921,
      "_<w>維": 7922,
      "_<w>盧</w>": 7923,
      "_<w>車</w>": 7924,
      "_<w>書": 7925,
      "_<w>良</w>": 7926,
      "_<w>观</w>": 7927,
      "琳</w>": 7928,
      "_<w>多</w>": 7929,
      "_<w>飛": 7930,
      "_<w>談</w>": 7931,
      "_<w>仁": 7932,
      "_<w>傑</w>": 7933,
      "_<w>提": 7934,
      "樹</w>": 7935,
      "_<w>津</w>": 7936,
      "_<w>許</w>": 7937,
      "_<w>儿</w>": 7938,
      "_<w>师</w>": 7939,
      "_<w>瓜": 7940,
      "_<w>埋</w>": 7941,
      "廬</w>": 7942,
      "_<w>在</w>": 7943,
      "_<w>採</w>": 7944,
      "_<w>辛</w>": 7945,
      "_<w>劳": 7946,
      "_<w>工": 7947,
      "_<w>组": 7948,
      "_<w>织</w>": 7949,
      "_<w>政</w>": 7950,
      "_<w>至</w>": 7951,
      "_<w>营</w>": 7952,
      "_<w>期": 7953,
      "_<w>辣</w>": 7954,
      "_<w>鬼</w>": 7955,
      "_<w>像</w>": 7956,
      "_<w>蛋": 7957,
      "_<w>給": 7958,
      "_<w>金</w>": 7959,
      "_<w>亿</w>": 7960,
      "_<w>队</w>": 7961,
      "_<w>埃": 7962,
      "_<w>論</w>": 7963,
      "望</w>": 7964,
      "_<w>擺": 7965,
      "_<w>放</w>": 7966,
      "_<w>妻</w>": 7967,
      "_<w>云</w>": 7968,
      "_<w>已</w>": 7969,
      "_<w>钊</w>": 7970,
      "_<w>章</w>": 7971,
      "_<w>模</w>": 7972,
      "_<w>新</w>": 7973,
      "陽</w>": 7974,
      "_<w>提</w>": 7975,
      "頖</w>": 7976,
      "_<w>宇": 7977,
      "_<w>珍</w>": 7978,
      "_<w>奧</w>": 7979,
      "_<w>养": 7980,
      "_<w>動": 7981,
      "_<w>腔</w>": 7982,
      "_<w>電</w>": 7983,
      "_<w>售": 7984,
      "_<w>格</w>": 7985,
      "_<w>帝</w>": 7986,
      "_<w>沛</w>": 7987,
      "_<w>鈞</w>": 7988,
      "_<w>級": 7989,
      "_<w>比</w>": 7990,
      "_<w>在": 7991,
      "_<w>範</w>": 7992,
      "_<w>愛</w>": 7993,
      "_<w>麗</w>": 7994,
      "_<w>发</w>": 7995,
      "_<w>滑</w>": 7996,
      "_<w>机": 7997,
      "_<w>存": 7998,
      "_<w>万</w>": 7999,
      "_<w>坏</w>": 8000,
      "_<w>盗</w>": 8001,
      "爬</w>": 8002,
      "_<w>光": 8003,
      "_<w>眼</w>": 8004,
      "_<w>課</w>": 8005,
      "菊</w>": 8006,
      "_<w>素</w>": 8007,
      "_<w>洋</w>": 8008,
      "耀</w>": 8009,
      "_<w>记": 8010,
      "_<w>册</w>": 8011,
      "_<w>炒</w>": 8012,
      "_<w>我": 8013,
      "_<w>屆</w>": 8014,
      "_<w>瑟": 8015,
      "_<w>偉": 8016,
      "_<w>禮</w>": 8017,
      "_<w>險": 8018,
      "_<w>吐": 8019,
      "_<w>著</w>": 8020,
      "_<w>枝</w>": 8021,
      "_<w>头</w>": 8022,
      "_<w>皮": 8023,
      "_<w>溫</w>": 8024,
      "_<w>腿</w>": 8025,
      "_<w>昕</w>": 8026,
      "_<w>絲</w>": 8027,
      "_<w>黑</w>": 8028,
      "_<w>柏</w>": 8029,
      "_<w>东": 8030,
      "_<w>话</w>": 8031,
      "_<w>顯</w>": 8032,
      "_<w>码": 8033,
      "_<w>宝": 8034,
      "_<w>贝</w>": 8035,
      "颂</w>": 8036,
      "_<w>荷</w>": 8037,
      "_<w>合": 8038,
      "_<w>艾</w>": 8039,
      "_<w>球</w>": 8040,
      "_<w>小</w>": 8041,
      "_<w>碎</w>": 8042,
      "_<w>福": 8043,
      "_<w>登</w>": 8044,
      "_<w>蝦</w>": 8045,
      "_<w>阶": 8046,
      "匪</w>": 8047,
      "_<w>站</w>": 8048,
      "_<w>候</w>": 8049,
      "_<w>鼎</w>": 8050,
      "_<w>難": 8051,
      "砲</w>": 8052,
      "_<w>脱</w>": 8053,
      "_<w>七": 8054,
      "_<w>培": 8055,
      "_<w>坤</w>": 8056,
      "_<w>禾</w>": 8057,
      "_<w>穂</w>": 8058,
      "_<w>仁</w>": 8059,
      "_<w>凤</w>": 8060,
      "_<w>且</w>": 8061,
      "_<w>傷</w>": 8062,
      "_<w>铁": 8063,
      "_<w>主</w>": 8064,
      "_<w>曾</w>": 8065,
      "焦</w>": 8066,
      "_<w>耷</w>": 8067,
      "女</w>": 8068,
      "_<w>暫</w>": 8069,
      "_<w>盟</w>": 8070,
      "_<w>煲</w>": 8071,
      "_<w>快</w>": 8072,
      "_<w>惹</w>": 8073,
      "_<w>蓉": 8074,
      "_<w>花</w>": 8075,
      "_<w>訊": 8076,
      "_<w>確": 8077,
      "_<w>惑</w>": 8078,
      "_<w>槍</w>": 8079,
      "_<w>烈": 8080,
      "_<w>要": 8081,
      "_<w>高": 8082,
      "嚥</w>": 8083,
      "_<w>躺</w>": 8084,
      "_<w>楨": 8085,
      "_<w>戰</w>": 8086,
      "_<w>长</w>": 8087,
      "_<w>策</w>": 8088,
      "戒</w>": 8089,
      "_<w>贼</w>": 8090,
      "_<w>委": 8091,
      "_<w>似": 8092,
      "霽</w>": 8093,
      "脂</w>": 8094,
      "_<w>眾</w>": 8095,
      "_<w>莉</w>": 8096,
      "_<w>賓</w>": 8097,
      "_<w>詞": 8098,
      "_<w>戒</w>": 8099,
      "_<w>卦</w>": 8100,
      "_<w>泊</w>": 8101,
      "_<w>旺": 8102,
      "_<w>死": 8103,
      "_<w>宥</w>": 8104,
      "_<w>禧": 8105,
      "_<w>班": 8106,
      "_<w>牙": 8107,
      "_<w>列": 8108,
      "_<w>做</w>": 8109,
      "_<w>例</w>": 8110,
      "_<w>粉</w>": 8111,
      "_<w>艷</w>": 8112,
      "_<w>极</w>": 8113,
      "_<w>康</w>": 8114,
      "_<w>丘</w>": 8115,
      "_<w>对": 8116,
      "_<w>雪</w>": 8117,
      "劳</w>": 8118,
      "_<w>敬": 8119,
      "_<w>衡</w>": 8120,
      "_<w>鳳": 8121,
      "_<w>儀</w>": 8122,
      "_<w>全": 8123,
      "_<w>措": 8124,
      "_<w>盟": 8125,
      "_<w>油": 8126,
      "_<w>同": 8127,
      "_<w>犬</w>": 8128,
      "_<w>棚</w>": 8129,
      "_<w>孝": 8130,
      "_<w>議</w>": 8131,
      "_<w>蘇": 8132,
      "_<w>狀": 8133,
      "_<w>脈</w>": 8134,
      "_<w>内</w>": 8135,
      "_<w>阶</w>": 8136,
      "_<w>患</w>": 8137,
      "鏗</w>": 8138,
      "枘</w>": 8139,
      "_<w>伊</w>": 8140,
      "_<w>胜": 8141,
      "掛</w>": 8142,
      "_<w>端</w>": 8143,
      "羽</w>": 8144,
      "_<w>軸": 8145,
      "_<w>整</w>": 8146,
      "_<w>齿</w>": 8147,
      "_<w>線": 8148,
      "_<w>精</w>": 8149,
      "_<w>鸛</w>": 8150,
      "_<w>俄</w>": 8151,
      "_<w>裝": 8152,
      "_<w>調": 8153,
      "_<w>橋</w>": 8154,
      "檬</w>": 8155,
      "_<w>業": 8156,
      "_<w>驶": 8157,
      "_<w>执": 8158,
      "_<w>好</w>": 8159,
      "_<w>底</w>": 8160,
      "_<w>亲</w>": 8161,
      "_<w>葉</w>": 8162,
      "_<w>二</w>": 8163,
      "_<w>阁</w>": 8164,
      "_<w>降</w>": 8165,
      "_<w>缘</w>": 8166,
      "_<w>炳": 8167,
      "_<w>射": 8168,
      "_<w>筒</w>": 8169,
      "頂</w>": 8170,
      "_<w>治</w>": 8171,
      "_<w>萨": 8172,
      "_<w>爭</w>": 8173,
      "_<w>建": 8174,
      "_<w>築</w>": 8175,
      "鎗</w>": 8176,
      "_<w>農": 8177,
      "_<w>络</w>": 8178,
      "_<w>莫</w>": 8179,
      "_<w>雨": 8180,
      "_<w>輪": 8181,
      "_<w>胎</w>": 8182,
      "_<w>神</w>": 8183,
      "_<w>迫": 8184,
      "_<w>喝</w>": 8185,
      "_<w>番</w>": 8186,
      "_<w>構": 8187,
      "_<w>服": 8188,
      "_<w>务</w>": 8189,
      "_<w>肪": 8190,
      "_<w>酸</w>": 8191,
      "_<w>矮": 8192,
      "_<w>鎮</w>": 8193,
      "_<w>腊": 8194,
      "礤</w>": 8195,
      "_<w>汰": 8196,
      "_<w>墨</w>": 8197,
      "_<w>壞</w>": 8198,
      "_<w>货": 8199,
      "_<w>币": 8200,
      "_<w>同</w>": 8201,
      "_<w>祈": 8202,
      "_<w>气</w>": 8203,
      "_<w>輻": 8204,
      "_<w>射</w>": 8205,
      "_<w>賴</w>": 8206,
      "_<w>状": 8207,
      "_<w>肿</w>": 8208,
      "_<w>标": 8209,
      "_<w>题</w>": 8210,
      "_<w>哮</w>": 8211,
      "_<w>活": 8212,
      "_<w>躍</w>": 8213,
      "_<w>卓": 8214,
      "_<w>我</w>": 8215,
      "_<w>杰": 8216,
      "曷</w>": 8217,
      "_<w>泉</w>": 8218,
      "_<w>光</w>": 8219,
      "_<w>旬</w>": 8220,
      "_<w>摩</w>": 8221,
      "_<w>布": 8222,
      "_<w>变</w>": 8223,
      "_<w>庭": 8224,
      "_<w>贡</w>": 8225,
      "_<w>典</w>": 8226,
      "_<w>穢</w>": 8227,
      "_<w>尤": 8228,
      "_<w>棟</w>": 8229,
      "_<w>录</w>": 8230,
      "騎</w>": 8231,
      "_<w>毛</w>": 8232,
      "_<w>必</w>": 8233,
      "_<w>腥</w>": 8234,
      "_<w>至": 8235,
      "裙</w>": 8236,
      "_<w>蝕": 8237,
      "_<w>劑</w>": 8238,
      "_<w>速</w>": 8239,
      "_<w>奥": 8240,
      "_<w>茎</w>": 8241,
      "_<w>維</w>": 8242,
      "_<w>芒</w>": 8243,
      "笛</w>": 8244,
      "_<w>女": 8245,
      "_<w>意</w>": 8246,
      "_<w>貨": 8247,
      "_<w>介</w>": 8248,
      "_<w>館": 8249,
      "_<w>涨</w>": 8250,
      "_<w>詹": 8251,
      "徳</w>": 8252,
      "咨</w>": 8253,
      "影</w>": 8254,
      "_<w>衍</w>": 8255,
      "_<w>歷</w>": 8256,
      "_<w>营": 8257,
      "_<w>尾": 8258,
      "_<w>蛇</w>": 8259,
      "_<w>紅</w>": 8260,
      "_<w>虎</w>": 8261,
      "_<w>产": 8262,
      "_<w>业</w>": 8263,
      "_<w>謀": 8264,
      "_<w>开": 8265,
      "_<w>市": 8266,
      "_<w>鄰</w>": 8267,
      "魣</w>": 8268,
      "_<w>开</w>": 8269,
      "_<w>师": 8270,
      "_<w>费</w>": 8271,
      "_<w>銅": 8272,
      "滅</w>": 8273,
      "塵</w>": 8274,
      "_<w>報</w>": 8275,
      "_<w>勿": 8276,
      "_<w>刹</w>": 8277,
      "有</w>": 8278,
      "_<w>晕</w>": 8279,
      "唐</w>": 8280,
      "_<w>县</w>": 8281,
      "_<w>周</w>": 8282,
      "_<w>岐</w>": 8283,
      "_<w>猛</w>": 8284,
      "_<w>食": 8285,
      "_<w>谈</w>": 8286,
      "_<w>头": 8287,
      "_<w>顿</w>": 8288,
      "_<w>胶": 8289,
      "_<w>識</w>": 8290,
      "_<w>毀</w>": 8291,
      "_<w>偽": 8292,
      "骨</w>": 8293,
      "戳</w>": 8294,
      "_<w>试": 8295,
      "_<w>汀</w>": 8296,
      "_<w>已": 8297,
      "_<w>瓊": 8298,
      "_<w>庇": 8299,
      "_<w>群": 8300,
      "_<w>洗</w>": 8301,
      "_<w>坦": 8302,
      "_<w>察</w>": 8303,
      "_<w>败</w>": 8304,
      "_<w>鑑</w>": 8305,
      "_<w>題</w>": 8306,
      "_<w>陽</w>": 8307,
      "_<w>属": 8308,
      "_<w>感</w>": 8309,
      "_<w>盐</w>": 8310,
      "_<w>约</w>": 8311,
      "_<w>伙</w>": 8312,
      "_<w>節": 8313,
      "_<w>廊</w>": 8314,
      "_<w>清</w>": 8315,
      "_<w>為": 8316,
      "_<w>沒": 8317,
      "_<w>昂": 8318,
      "_<w>贵</w>": 8319,
      "_<w>帖": 8320,
      "讲</w>": 8321,
      "_<w>爪": 8322,
      "_<w>哇</w>": 8323,
      "_<w>卜": 8324,
      "_<w>霍": 8325,
      "_<w>酷</w>": 8326,
      "_<w>吁</w>": 8327,
      "潟</w>": 8328,
      "_<w>峻</w>": 8329,
      "_<w>寧": 8330,
      "_<w>守": 8331,
      "_<w>護</w>": 8332,
      "_<w>准": 8333,
      "_<w>滑": 8334,
      "_<w>滕</w>": 8335,
      "_<w>協": 8336,
      "乔</w>": 8337,
      "_<w>与</w>": 8338,
      "_<w>页</w>": 8339,
      "邉</w>": 8340,
      "_<w>戟": 8341,
      "_<w>剧": 8342,
      "_<w>丝": 8343,
      "_<w>验</w>": 8344,
      "_<w>矢</w>": 8345,
      "_<w>個": 8346,
      "_<w>巧": 8347,
      "_<w>段": 8348,
      "_<w>锦</w>": 8349,
      "_<w>郎</w>": 8350,
      "_<w>伏</w>": 8351,
      "豊</w>": 8352,
      "_<w>皇</w>": 8353,
      "_<w>柳</w>": 8354,
      "_<w>團": 8355,
      "_<w>綸</w>": 8356,
      "_<w>椅</w>": 8357,
      "_<w>俊</w>": 8358,
      "_<w>四</w>": 8359,
      "_<w>永": 8360,
      "_<w>遠</w>": 8361,
      "_<w>瑪</w>": 8362,
      "_<w>族": 8363,
      "_<w>旗</w>": 8364,
      "_<w>骨</w>": 8365,
      "芸</w>": 8366,
      "_<w>越</w>": 8367,
      "_<w>旺</w>": 8368,
      "_<w>款": 8369,
      "_<w>紹</w>": 8370,
      "_<w>輯": 8371,
      "_<w>傷": 8372,
      "_<w>看</w>": 8373,
      "_<w>库": 8374,
      "_<w>奎</w>": 8375,
      "_<w>念</w>": 8376,
      "_<w>灾": 8377,
      "_<w>勞": 8378,
      "_<w>崽</w>": 8379,
      "_<w>覲</w>": 8380,
      "_<w>目": 8381,
      "_<w>初</w>": 8382,
      "_<w>廉</w>": 8383,
      "_<w>宗": 8384,
      "_<w>宗</w>": 8385,
      "_<w>泉": 8386,
      "_<w>潰</w>": 8387,
      "_<w>諾": 8388,
      "_<w>收</w>": 8389,
      "_<w>长": 8390,
      "_<w>抑": 8391,
      "_<w>攻</w>": 8392,
      "_<w>湯</w>": 8393,
      "_<w>伦</w>": 8394,
      "_<w>'</w>": 8395,
      "_<w>佛": 8396,
      "_<w>靜</w>": 8397,
      "_<w>效</w>": 8398,
      "_<w>別</w>": 8399,
      "_<w>輪</w>": 8400,
      "_<w>镖</w>": 8401,
      "_<w>槽</w>": 8402,
      "_<w>尚</w>": 8403,
      "_<w>冠": 8404,
      "_<w>詩</w>": 8405,
      "_<w>阪": 8406,
      "榆</w>": 8407,
      "_<w>織</w>": 8408,
      "_<w>演</w>": 8409,
      "_<w>绳</w>": 8410,
      "_<w>身</w>": 8411,
      "百</w>": 8412,
      "_<w>乐": 8413,
      "_<w>盒</w>": 8414,
      "_<w>谣</w>": 8415,
      "_<w>宏": 8416,
      "_<w>順</w>": 8417,
      "_<w>進</w>": 8418,
      "_<w>裙</w>": 8419,
      "_<w>谱</w>": 8420,
      "_<w>刹": 8421,
      "_<w>九": 8422,
      "_<w>友</w>": 8423,
      "_<w>匪</w>": 8424,
      "_<w>忠</w>": 8425,
      "_<w>葵</w>": 8426,
      "_<w>每": 8427,
      "_<w>刻</w>": 8428,
      "_<w>苔</w>": 8429,
      "_<w>该</w>": 8430,
      "_<w>以": 8431,
      "_<w>使": 8432,
      "_<w>满": 8433,
      "_<w>紅": 8434,
      "_<w>怀</w>": 8435,
      "_<w>乌</w>": 8436,
      "_<w>獎": 8437,
      "_<w>及</w>": 8438,
      "_<w>算": 8439,
      "_<w>張</w>": 8440,
      "_<w>藏": 8441,
      "_<w>築": 8442,
      "_<w>重": 8443,
      "_<w>奏</w>": 8444,
      "_<w>恩": 8445,
      "_<w>佩</w>": 8446,
      "_<w>組</w>": 8447,
      "_<w>轉</w>": 8448,
      "_<w>涅": 8449,
      "_<w>狄": 8450,
      "_<w>承</w>": 8451,
      "_<w>冲</w>": 8452,
      "_<w>坡": 8453,
      "_<w>徒</w>": 8454,
      "_<w>奪</w>": 8455,
      "_<w>指</w>": 8456,
      "_<w>愈</w>": 8457,
      "镁</w>": 8458,
      "_<w>洱": 8459,
      "_<w>茶</w>": 8460,
      "_<w>繼": 8461,
      "_<w>續</w>": 8462,
      "_<w>凱</w>": 8463,
      "庫</w>": 8464,
      "_<w>陣</w>": 8465,
      "_<w>诈": 8466,
      "_<w>錯</w>": 8467,
      "_<w>土": 8468,
      "_<w>坦</w>": 8469,
      "_<w>涅</w>": 8470,
      "护</w>": 8471,
      "馳</w>": 8472,
      "_<w>劇": 8473,
      "_<w>梨</w>": 8474,
      "_<w>細": 8475,
      "_<w>胞</w>": 8476,
      "_<w>蒸": 8477,
      "_<w>餾</w>": 8478,
      "_<w>维</w>": 8479,
      "_<w>險</w>": 8480,
      "_<w>浦": 8481,
      "_<w>彌</w>": 8482,
      "卖</w>": 8483,
      "_<w>途</w>": 8484,
      "_<w>斧": 8485,
      "_<w>陣": 8486,
      "面</w>": 8487,
      "_<w>滿": 8488,
      "_<w>足</w>": 8489,
      "_<w>努": 8490,
      "_<w>南": 8491,
      "_<w>绝</w>": 8492,
      "_<w>批</w>": 8493,
      "_<w>识</w>": 8494,
      "_<w>敞": 8495,
      "_<w>郡</w>": 8496,
      "_<w>設</w>": 8497,
      "獅</w>": 8498,
      "_<w>恋</w>": 8499,
      "黨</w>": 8500,
      "_<w>見": 8501,
      "_<w>證</w>": 8502,
      "燦</w>": 8503,
      "_<w>弧</w>": 8504,
      "_<w>狸</w>": 8505,
      "陳</w>": 8506,
      "梓</w>": 8507,
      "_<w>疽": 8508,
      "_<w>聞</w>": 8509,
      "閦</w>": 8510,
      "齢</w>": 8511,
      "_<w>師</w>": 8512,
      "_<w>弗</w>": 8513,
      "_<w>憶": 8514,
      "_<w>亿": 8515,
      "_<w>刍</w>": 8516,
      "_<w>职": 8517,
      "_<w>酒</w>": 8518,
      "儂</w>": 8519,
      "_<w>艘</w>": 8520,
      "_<w>波</w>": 8521,
      "下</w>": 8522,
      "_<w>法": 8523,
      "_<w>官</w>": 8524,
      "_<w>等": 8525,
      "_<w>匠</w>": 8526,
      "_<w>增</w>": 8527,
      "_<w>卧": 8528,
      "_<w>川</w>": 8529,
      "_<w>記": 8530,
      "_<w>處</w>": 8531,
      "并</w>": 8532,
      "_<w>東": 8533,
      "_<w>灘</w>": 8534,
      "_<w>凰</w>": 8535,
      "_<w>释</w>": 8536,
      "_<w>薇</w>": 8537,
      "_<w>鍋</w>": 8538,
      "_<w>島": 8539,
      "_<w>嶼</w>": 8540,
      "_<w>股": 8541,
      "_<w>迦": 8542,
      "_<w>价</w>": 8543,
      "_<w>防": 8544,
      "_<w>漿</w>": 8545,
      "_<w>靠": 8546,
      "_<w>隸": 8547,
      "_<w>煉</w>": 8548,
      "_<w>夕": 8549,
      "_<w>拾</w>": 8550,
      "钡</w>": 8551,
      "_<w>乱</w>": 8552,
      "亡</w>": 8553,
      "_<w>纪": 8554,
      "億</w>": 8555,
      "殛</w>": 8556,
      "_<w>憾</w>": 8557,
      "_<w>機": 8558,
      "_<w>僅": 8559,
      "钗</w>": 8560,
      "_<w>断": 8561,
      "_<w>扩": 8562,
      "_<w>因": 8563,
      "_<w>閣</w>": 8564,
      "_<w>太</w>": 8565,
      "锁</w>": 8566,
      "_<w>門": 8567,
      "_<w>认</w>": 8568,
      "_<w>乎": 8569,
      "_<w>意": 8570,
      "_<w>房</w>": 8571,
      "_<w>键</w>": 8572,
      "_<w>氛": 8573,
      "_<w>智</w>": 8574,
      "_<w>首</w>": 8575,
      "熱</w>": 8576,
      "_<w>束</w>": 8577,
      "_<w>各": 8578,
      "_<w>答</w>": 8579,
      "_<w>甘": 8580,
      "_<w>榜</w>": 8581,
      "紗</w>": 8582,
      "_<w>吟": 8583,
      "_<w>遊</w>": 8584,
      "_<w>智": 8585,
      "_<w>句": 8586,
      "_<w>捕</w>": 8587,
      "_<w>复": 8588,
      "_<w>俄": 8589,
      "_<w>榴": 8590,
      "_<w>彈": 8591,
      "_<w>餘</w>": 8592,
      "_<w>公</w>": 8593,
      "餡</w>": 8594,
      "_<w>许</w>": 8595,
      "_<w>肉</w>": 8596,
      "_<w>慢</w>": 8597,
      "_<w>莉": 8598,
      "六</w>": 8599,
      "_<w>原": 8600,
      "_<w>岗</w>": 8601,
      "_<w>岸</w>": 8602,
      "駘</w>": 8603,
      "_<w>条": 8604,
      "_<w>客</w>": 8605,
      "_<w>选": 8606,
      "_<w>举</w>": 8607,
      "_<w>拳</w>": 8608,
      "_<w>龄</w>": 8609,
      "_<w>酐</w>": 8610,
      "_<w>干</w>": 8611,
      "_<w>雲": 8612,
      "_<w>划": 8613,
      "_<w>术": 8614,
      "_<w>锡</w>": 8615,
      "_<w>憂": 8616,
      "_<w>鳳</w>": 8617,
      "_<w>懲</w>": 8618,
      "_<w>罪": 8619,
      "_<w>释": 8620,
      "供</w>": 8621,
      "_<w>令": 8622,
      "_<w>父</w>": 8623,
      "_<w>住</w>": 8624,
      "_<w>际</w>": 8625,
      "_<w>块</w>": 8626,
      "_<w>想</w>": 8627,
      "硒</w>": 8628,
      "_<w>朝": 8629,
      "覆</w>": 8630,
      "_<w>示</w>": 8631,
      "_<w>迷</w>": 8632,
      "_<w>瑞": 8633,
      "显</w>": 8634,
      "_<w>反": 8635,
      "_<w>流</w>": 8636,
      "俩</w>": 8637,
      "鉄</w>": 8638,
      "_<w>標": 8639,
      "_<w>幗</w>": 8640,
      "_<w>洱</w>": 8641,
      "抑</w>": 8642,
      "_<w>齡</w>": 8643,
      "佳</w>": 8644,
      "_<w>峡</w>": 8645,
      "_<w>弱</w>": 8646,
      "_<w>矿</w>": 8647,
      "_<w>駁</w>": 8648,
      "_<w>族</w>": 8649,
      "_<w>伐": 8650,
      "_<w>互": 8651,
      "_<w>作": 8652,
      "_<w>夷</w>": 8653,
      "_<w>回": 8654,
      "_<w>憶</w>": 8655,
      "_<w>毫</w>": 8656,
      "_<w>譽": 8657,
      "_<w>缝</w>": 8658,
      "_<w>芬": 8659,
      "_<w>孕": 8660,
      "_<w>潮</w>": 8661,
      "_<w>宫": 8662,
      "_<w>颈</w>": 8663,
      "_<w>異</w>": 8664,
      "_<w>萨</w>": 8665,
      "_<w>进</w>": 8666,
      "_<w>鎖</w>": 8667,
      "_<w>冲": 8668,
      "_<w>突</w>": 8669,
      "_<w>芳</w>": 8670,
      "_<w>载</w>": 8671,
      "_<w>羅</w>": 8672,
      "_<w>绪</w>": 8673,
      "_<w>婦</w>": 8674,
      "_<w>解</w>": 8675,
      "_<w>餅</w>": 8676,
      "_<w>钉</w>": 8677,
      "_<w>越": 8678,
      "_<w>坛": 8679,
      "_<w>觀": 8680,
      "_<w>偶</w>": 8681,
      "_<w>效": 8682,
      "_<w>争</w>": 8683,
      "_<w>難</w>": 8684,
      "窺</w>": 8685,
      "邏</w>": 8686,
      "_<w>專</w>": 8687,
      "_<w>五</w>": 8688,
      "_<w>困</w>": 8689,
      "_<w>灵": 8690,
      "_<w>论</w>": 8691,
      "_<w>草": 8692,
      "_<w>纲": 8693,
      "_<w>戲": 8694,
      "_<w>劇</w>": 8695,
      "_<w>邁</w>": 8696,
      "_<w>折</w>": 8697,
      "_<w>凱": 8698,
      "_<w>送</w>": 8699,
      "鯊</w>": 8700,
      "_<w>剂</w>": 8701,
      "_<w>义": 8702,
      "鄒</w>": 8703,
      "_<w>琳</w>": 8704,
      "_<w>雨</w>": 8705,
      "_<w>恋": 8706,
      "_<w>拿": 8707,
      "_<w>四": 8708,
      "_<w>故": 8709,
      "_<w>转": 8710,
      "_<w>门": 8711,
      "_<w>从": 8712,
      "_<w>噸</w>": 8713,
      "好</w>": 8714,
      "艙</w>": 8715,
      "_<w>置</w>": 8716,
      "_<w>氣": 8717,
      "_<w>盾</w>": 8718,
      "_<w>鳥": 8719,
      "_<w>奧": 8720,
      "_<w>菲</w>": 8721,
      "_<w>肩": 8722,
      "_<w>织": 8723,
      "_<w>精": 8724,
      "_<w>衛</w>": 8725,
      "_<w>氢": 8726,
      "諭</w>": 8727,
      "凱</w>": 8728,
      "_<w>腳</w>": 8729,
      "_<w>印</w>": 8730,
      "嫩</w>": 8731,
      "捕</w>": 8732,
      "_<w>楼</w>": 8733,
      "_<w>顛</w>": 8734,
      "_<w>岁</w>": 8735,
      "_<w>岸": 8736,
      "_<w>被</w>": 8737,
      "_<w>癢</w>": 8738,
      "_<w>形": 8739,
      "_<w>仅</w>": 8740,
      "_<w>但</w>": 8741,
      "_<w>网</w>": 8742,
      "_<w>准</w>": 8743,
      "蠔</w>": 8744,
      "_<w>贝": 8745,
      "_<w>键": 8746,
      "_<w>批": 8747,
      "_<w>星": 8748,
      "_<w>燭</w>": 8749,
      "_<w>覆": 8750,
      "_<w>蓋</w>": 8751,
      "_<w>棺</w>": 8752,
      "禩</w>": 8753,
      "_<w>活</w>": 8754,
      "_<w>銜": 8755,
      "_<w>雜": 8756,
      "_<w>誌</w>": 8757,
      "_<w>武": 8758,
      "_<w>宾</w>": 8759,
      "_<w>兇": 8760,
      "_<w>却</w>": 8761,
      "_<w>晴</w>": 8762,
      "_<w>識": 8763,
      "_<w>棵</w>": 8764,
      "_<w>鵝": 8765,
      "_<w>補</w>": 8766,
      "_<w>茅": 8767,
      "_<w>惨</w>": 8768,
      "_<w>娜": 8769,
      "_<w>宕": 8770,
      "_<w>汗": 8771,
      "_<w>屑</w>": 8772,
      "_<w>即</w>": 8773,
      "_<w>玩</w>": 8774,
      "_<w>味": 8775,
      "埔</w>": 8776,
      "_<w>震": 8777,
      "_<w>第</w>": 8778,
      "_<w>悍</w>": 8779,
      "_<w>垒</w>": 8780,
      "_<w>藤": 8781,
      "_<w>獨": 8782,
      "_<w>入": 8783,
      "_<w>衝</w>": 8784,
      "_<w>譯": 8785,
      "抄</w>": 8786,
      "_<w>捐": 8787,
      "_<w>贈</w>": 8788,
      "累</w>": 8789,
      "_<w>婆": 8790,
      "_<w>让</w>": 8791,
      "_<w>锅</w>": 8792,
      "_<w>跃</w>": 8793,
      "_<w>卵</w>": 8794,
      "_<w>哥": 8795,
      "_<w>沼</w>": 8796,
      "_<w>娅</w>": 8797,
      "_<w>姐</w>": 8798,
      "_<w>羊</w>": 8799,
      "_<w>歲</w>": 8800,
      "_<w>賞</w>": 8801,
      "碼</w>": 8802,
      "_<w>项</w>": 8803,
      "_<w>绩": 8804,
      "_<w>单</w>": 8805,
      "_<w>容": 8806,
      "_<w>弊</w>": 8807,
      "_<w>紓": 8808,
      "_<w>.": 8809,
      "_<w>.</w>": 8810,
      "_<w>覽": 8811,
      "_<w>苏</w>": 8812,
      "八</w>": 8813,
      "_<w>憲</w>": 8814,
      "还</w>": 8815,
      "_<w>扇</w>": 8816,
      "_<w>爱</w>": 8817,
      "_<w>持": 8818,
      "_<w>售</w>": 8819,
      "_<w>耀</w>": 8820,
      "_<w>护": 8821,
      "_<w>罩</w>": 8822,
      "_<w>珊": 8823,
      "_<w>桑</w>": 8824,
      "_<w>甲</w>": 8825,
      "髑</w>": 8826,
      "问</w>": 8827,
      "_<w>透": 8828,
      "_<w>間": 8829,
      "_<w>諜</w>": 8830,
      "_<w>癖</w>": 8831,
      "蔣</w>": 8832,
      "_<w>期</w>": 8833,
      "搏</w>": 8834,
      "_<w>丁": 8835,
      "_<w>歌</w>": 8836,
      "緻</w>": 8837,
      "_<w>揮": 8838,
      "_<w>非</w>": 8839,
      "_<w>痕</w>": 8840,
      "_<w>紧</w>": 8841,
      "_<w>孜": 8842,
      "_<w>托</w>": 8843,
      "_<w>銷": 8844,
      "_<w>麦": 8845,
      "_<w>眠": 8846,
      "_<w>症</w>": 8847,
      "_<w>锋</w>": 8848,
      "_<w>壺</w>": 8849,
      "_<w>瀚</w>": 8850,
      "_<w>罐</w>": 8851,
      "_<w>強</w>": 8852,
      "_<w>烟</w>": 8853,
      "_<w>植": 8854,
      "_<w>鐘</w>": 8855,
      "浓</w>": 8856,
      "_<w>幕": 8857,
      "_<w>保": 8858,
      "_<w>股</w>": 8859,
      "_<w>城": 8860,
      "_<w>握</w>": 8861,
      "_<w>砂</w>": 8862,
      "_<w>用": 8863,
      "_<w>苦</w>": 8864,
      "_<w>泰</w>": 8865,
      "_<w>咪</w>": 8866,
      "_<w>墜": 8867,
      "_<w>节": 8868,
      "張</w>": 8869,
      "_<w>錐": 8870,
      "_<w>餐</w>": 8871,
      "_<w>授</w>": 8872,
      "_<w>鶯</w>": 8873,
      "_<w>烤</w>": 8874,
      "_<w>句</w>": 8875,
      "_<w>殖</w>": 8876,
      "_<w>貝</w>": 8877,
      "_<w>斬": 8878,
      "_<w>均": 8879,
      "_<w>寿": 8880,
      "_<w>规": 8881,
      "_<w>能": 8882,
      "_<w>鞠": 8883,
      "_<w>处</w>": 8884,
      "师</w>": 8885,
      "_<w>衷": 8886,
      "_<w>營": 8887,
      "_<w>歇": 8888,
      "_<w>了": 8889,
      "_<w>罪</w>": 8890,
      "仅</w>": 8891,
      "_<w>亭</w>": 8892,
      "_<w>蹄": 8893,
      "圓</w>": 8894,
      "_<w>逐": 8895,
      "_<w>漸</w>": 8896,
      "_<w>坐</w>": 8897,
      "_<w>色": 8898,
      "_<w>属</w>": 8899,
      "_<w>懿": 8900,
      "_<w>妃</w>": 8901,
      "鱼</w>": 8902,
      "_<w>戒": 8903,
      "_<w>第": 8904,
      "_<w>丸</w>": 8905,
      "_<w>宽</w>": 8906,
      "_<w>舰</w>": 8907,
      "_<w>癇": 8908,
      "_<w>勤": 8909,
      "_<w>蹈": 8910,
      "_<w>社</w>": 8911,
      "奎</w>": 8912,
      "_<w>纽": 8913,
      "_<w>玩": 8914,
      "_<w>志</w>": 8915,
      "_<w>纲</w>": 8916,
      "_<w>松</w>": 8917,
      "_<w>总": 8918,
      "_<w>监</w>": 8919,
      "_<w>構</w>": 8920,
      "_<w>似</w>": 8921,
      "_<w>戰": 8922,
      "_<w>役</w>": 8923,
      "_<w>顧": 8924,
      "_<w>搬</w>": 8925,
      "_<w>脏": 8926,
      "_<w>怡": 8927,
      "_<w>裡": 8928,
      "_<w>粒": 8929,
      "或</w>": 8930,
      "_<w>錢</w>": 8931,
      "_<w>游": 8932,
      "_<w>戏</w>": 8933,
      "_<w>沉": 8934,
      "_<w>噪</w>": 8935,
      "化</w>": 8936,
      "_<w>傘</w>": 8937,
      "_<w>蝇</w>": 8938,
      "_<w>猶": 8939,
      "_<w>激": 8940,
      "_<w>英": 8941,
      "_<w>霍</w>": 8942,
      "醃</w>": 8943,
      "_<w>源": 8944,
      "_<w>嘉": 8945,
      "_<w>樓</w>": 8946,
      "_<w>榮</w>": 8947,
      "_<w>與": 8948,
      "_<w>票": 8949,
      "_<w>投": 8950,
      "_<w>资</w>": 8951,
      "_<w>话": 8952,
      "蹟</w>": 8953,
      "_<w>組": 8954,
      "濂</w>": 8955,
      "_<w>务": 8956,
      "_<w>嫩</w>": 8957,
      "_<w>蜜</w>": 8958,
      "_<w>吊": 8959,
      "_<w>燈</w>": 8960,
      "_<w>於": 8961,
      "_<w>经": 8962,
      "_<w>雅": 8963,
      "_<w>雯</w>": 8964,
      "_<w>秀": 8965,
      "_<w>沉</w>": 8966,
      "_<w>足": 8967,
      "_<w>骂</w>": 8968,
      "_<w>眷</w>": 8969,
      "_<w>窝</w>": 8970,
      "_<w>输": 8971,
      "荃</w>": 8972,
      "_<w>辰": 8973,
      "_<w>鴿</w>": 8974,
      "_<w>狀</w>": 8975,
      "難</w>": 8976,
      "_<w>税": 8977,
      "_<w>銹": 8978,
      "_<w>鋼</w>": 8979,
      "鈀</w>": 8980,
      "_<w>夏": 8981,
      "賀</w>": 8982,
      "_<w>卑</w>": 8983,
      "_<w>翅": 8984,
      "_<w>奇": 8985,
      "_<w>富</w>": 8986,
      "_<w>尖</w>": 8987,
      "_<w>歌": 8988,
      "_<w>曲</w>": 8989,
      "_<w>篷</w>": 8990,
      "_<w>堯</w>": 8991,
      "_<w>紙</w>": 8992,
      "_<w>倉</w>": 8993,
      "_<w>筆</w>": 8994,
      "_<w>佳": 8995,
      "_<w>湾": 8996,
      "铎</w>": 8997,
      "_<w>澳</w>": 8998,
      "_<w>耕": 8999,
      "_<w>健": 9000,
      "_<w>雄</w>": 9001,
      "_<w>富": 9002,
      "_<w>請</w>": 9003,
      "_<w>適</w>": 9004,
      "鏌</w>": 9005,
      "_<w>程": 9006,
      "_<w>料": 9007,
      "_<w>濟": 9008,
      "_<w>慮</w>": 9009,
      "_<w>对</w>": 9010,
      "_<w>聯</w>": 9011,
      "_<w>避</w>": 9012,
      "_<w>荪</w>": 9013,
      "_<w>殼": 9014,
      "_<w>蟲</w>": 9015,
      "_<w>寢</w>": 9016,
      "_<w>痞</w>": 9017,
      "绝</w>": 9018,
      "_<w>枪</w>": 9019,
      "_<w>老</w>": 9020,
      "_<w>鹼</w>": 9021,
      "_<w>渴</w>": 9022,
      "_<w>渠</w>": 9023,
      "_<w>朗</w>": 9024,
      "_<w>汉": 9025,
      "_<w>興</w>": 9026,
      "_<w>校</w>": 9027,
      "潾</w>": 9028,
      "_<w>晨</w>": 9029,
      "_<w>醇</w>": 9030,
      "_<w>梗</w>": 9031,
      "_<w>擇": 9032,
      "_<w>力": 9033,
      "_<w>擾</w>": 9034,
      "_<w>病": 9035,
      "_<w>封</w>": 9036,
      "_<w>追": 9037,
      "_<w>靜": 9038,
      "_<w>泡</w>": 9039,
      "_<w>鬥": 9040,
      "_<w>据": 9041,
      "_<w>興": 9042,
      "_<w>财": 9043,
      "_<w>顺</w>": 9044,
      "_<w>锻": 9045,
      "_<w>炼</w>": 9046,
      "剣</w>": 9047,
      "翮</w>": 9048,
      "鼻</w>": 9049,
      "_<w>坊</w>": 9050,
      "函</w>": 9051,
      "種</w>": 9052,
      "_<w>珠</w>": 9053,
      "_<w>飛</w>": 9054,
      "_<w>積</w>": 9055,
      "_<w>低": 9056,
      "_<w>變": 9057,
      "_<w>耶</w>": 9058,
      "_<w>齊": 9059,
      "_<w>戎</w>": 9060,
      "_<w>三</w>": 9061,
      "_<w>輕</w>": 9062,
      "_<w>飞</w>": 9063,
      "_<w>绝": 9064,
      "_<w>种": 9065,
      "_<w>威": 9066,
      "_<w>脅</w>": 9067,
      "_<w>医": 9068,
      "_<w>操</w>": 9069,
      "_<w>圆</w>": 9070,
      "赖</w>": 9071,
      "_<w>導</w>": 9072,
      "_<w>萱</w>": 9073,
      "鑒</w>": 9074,
      "_<w>幅</w>": 9075,
      "_<w>尸</w>": 9076,
      "_<w>首": 9077,
      "_<w>游</w>": 9078,
      "惨</w>": 9079,
      "_<w>奏": 9080,
      "_<w>居</w>": 9081,
      "_<w>钾</w>": 9082,
      "_<w>默": 9083,
      "_<w>斥</w>": 9084,
      "_<w>獻": 9085,
      "_<w>硬</w>": 9086,
      "_<w>瑤</w>": 9087,
      "_<w>缓</w>": 9088,
      "焕</w>": 9089,
      "膨</w>": 9090,
      "坏</w>": 9091,
      "_<w>決</w>": 9092,
      "_<w>茄</w>": 9093,
      "_<w>掷</w>": 9094,
      "_<w>见": 9095,
      "_<w>裁": 9096,
      "_<w>要</w>": 9097,
      "_<w>叔</w>": 9098,
      "_<w>速": 9099,
      "_<w>琳": 9100,
      "_<w>幫": 9101,
      "_<w>兴</w>": 9102,
      "_<w>宫</w>": 9103,
      "_<w>弓</w>": 9104,
      "_<w>右": 9105,
      "_<w>楚": 9106,
      "_<w>姦</w>": 9107,
      "_<w>旋": 9108,
      "_<w>藻</w>": 9109,
      "_<w>拍</w>": 9110,
      "_<w>伴</w>": 9111,
      "_<w>炸</w>": 9112,
      "_<w>琪</w>": 9113,
      "_<w>睜": 9114,
      "_<w>交": 9115,
      "_<w>臣</w>": 9116,
      "_<w>桥</w>": 9117,
      "_<w>牟": 9118,
      "_<w>仿</w>": 9119,
      "_<w>剩</w>": 9120,
      "_<w>济": 9121,
      "埻</w>": 9122,
      "快</w>": 9123,
      "_<w>汗</w>": 9124,
      "_<w>擔</w>": 9125,
      "_<w>鐘": 9126,
      "_<w>賣</w>": 9127,
      "划</w>": 9128,
      "_<w>灑</w>": 9129,
      "承</w>": 9130,
      "_<w>爭": 9131,
      "_<w>哲": 9132,
      "_<w>刷</w>": 9133,
      "_<w>牌": 9134,
      "_<w>遇</w>": 9135,
      "_<w>禧</w>": 9136,
      "_<w>遍": 9137,
      "_<w>季</w>": 9138,
      "_<w>允</w>": 9139,
      "喰</w>": 9140,
      "_<w>淡</w>": 9141,
      "_<w>常</w>": 9142,
      "_<w>黎": 9143,
      "_<w>波": 9144,
      "_<w>盲</w>": 9145,
      "_<w>砚": 9146,
      "_<w>斋</w>": 9147,
      "_<w>装</w>": 9148,
      "_<w>记</w>": 9149,
      "_<w>們": 9150,
      "_<w>社": 9151,
      "拱</w>": 9152,
      "_<w>留": 9153,
      "_<w>申</w>": 9154,
      "_<w>助": 9155,
      "_<w>佛</w>": 9156,
      "_<w>村": 9157,
      "_<w>莊</w>": 9158,
      "_<w>情</w>": 9159,
      "堡</w>": 9160,
      "甲</w>": 9161,
      "_<w>扮": 9162,
      "_<w>誓</w>": 9163,
      "_<w>席</w>": 9164,
      "_<w>柠": 9165,
      "_<w>此</w>": 9166,
      "_<w>条</w>": 9167,
      "_<w>誠": 9168,
      "_<w>壁</w>": 9169,
      "_<w>含</w>": 9170,
      "_<w>猩": 9171,
      "_<w>猩</w>": 9172,
      "_<w>輛</w>": 9173,
      "_<w>應": 9174,
      "苑</w>": 9175,
      "_<w>脓</w>": 9176,
      "_<w>辑</w>": 9177,
      "_<w>換</w>": 9178,
      "_<w>齒</w>": 9179,
      "_<w>執</w>": 9180,
      "_<w>週</w>": 9181,
      "_<w>展": 9182,
      "_<w>系": 9183,
      "_<w>洞": 9184,
      "_<w>知": 9185,
      "_<w>烈</w>": 9186,
      "_<w>弗": 9187,
      "_<w>使</w>": 9188,
      "_<w>唱</w>": 9189,
      "_<w>说": 9190,
      "輓</w>": 9191,
      "_<w>淌</w>": 9192,
      "_<w>詞</w>": 9193,
      "_<w>飘": 9194,
      "_<w>扬</w>": 9195,
      "_<w>戎": 9196,
      "_<w>京": 9197,
      "_<w>种</w>": 9198,
      "_<w>门</w>": 9199,
      "_<w>唇</w>": 9200,
      "_<w>幕</w>": 9201,
      "_<w>疑": 9202,
      "_<w>娛</w>": 9203,
      "_<w>钮</w>": 9204,
      "_<w>铜</w>": 9205,
      "_<w>虾</w>": 9206,
      "_<w>銀": 9207,
      "_<w>划</w>": 9208,
      "迴</w>": 9209,
      "_<w>遙": 9210,
      "_<w>廂</w>": 9211,
      "_<w>殿": 9212,
      "_<w>礦</w>": 9213,
      "_<w>外": 9214,
      "_<w>璉</w>": 9215,
      "華</w>": 9216,
      "_<w>税</w>": 9217,
      "_<w>錫</w>": 9218,
      "_<w>汁</w>": 9219,
      "_<w>燕": 9220,
      "_<w>歡</w>": 9221,
      "_<w>诚</w>": 9222,
      "_<w>藍": 9223,
      "広</w>": 9224,
      "_<w>托": 9225,
      "_<w>纹</w>": 9226,
      "_<w>裁</w>": 9227,
      "_<w>约": 9228,
      "像</w>": 9229,
      "_<w>沫</w>": 9230,
      "_<w>写</w>": 9231,
      "節</w>": 9232,
      "_<w>歸": 9233,
      "_<w>逊</w>": 9234,
      "_<w>滌</w>": 9235,
      "_<w>仔</w>": 9236,
      "_<w>村</w>": 9237,
      "衆</w>": 9238,
      "_<w>义</w>": 9239,
      "煉</w>": 9240,
      "派</w>": 9241,
      "_<w>寧</w>": 9242,
      "媽</w>": 9243,
      "_<w>環": 9244,
      "_<w>试</w>": 9245,
      "_<w>笼</w>": 9246,
      "_<w>頰</w>": 9247,
      "_<w>引": 9248,
      "_<w>夸": 9249,
      "_<w>曹": 9250,
      "駅</w>": 9251,
      "_<w>迈</w>": 9252,
      "_<w>茨": 9253,
      "_<w>琴</w>": 9254,
      "_<w>盘": 9255,
      "_<w>驱": 9256,
      "_<w>巫": 9257,
      "_<w>招</w>": 9258,
      "効</w>": 9259,
      "_<w>优": 9260,
      "_<w>耳</w>": 9261,
      "_<w>带": 9262,
      "_<w>府": 9263,
      "_<w>减": 9264,
      "_<w>轻</w>": 9265,
      "_<w>祝": 9266,
      "_<w>江</w>": 9267,
      "_<w>声": 9268,
      "虾</w>": 9269,
      "_<w>紋</w>": 9270,
      "欙</w>": 9271,
      "_<w>盛</w>": 9272,
      "_<w>车": 9273,
      "_<w>秀</w>": 9274,
      "僿</w>": 9275,
      "_<w>顿": 9276,
      "遗</w>": 9277,
      "_<w>件": 9278,
      "_<w>忠": 9279,
      "_<w>瓶": 9280,
      "_<w>陀": 9281,
      "_<w>孔</w>": 9282,
      "_</w>": 9283,
      "昭</w>": 9284,
      "_<w>若</w>": 9285,
      "_<w>镜</w>": 9286,
      "_<w>顯": 9287,
      "_<w>逸": 9288,
      "_<w>列</w>": 9289,
      "_<w>现</w>": 9290,
      "_<w>兵": 9291,
      "稽</w>": 9292,
      "_<w>韦": 9293,
      "_<w>轮</w>": 9294,
      "_<w>窗</w>": 9295,
      "_<w>芬</w>": 9296,
      "_<w>押</w>": 9297,
      "_<w>渡": 9298,
      "_<w>薰</w>": 9299,
      "_<w>筱": 9300,
      "_<w>究": 9301,
      "槱</w>": 9302,
      "_<w>苗": 9303,
      "_<w>轟</w>": 9304,
      "_<w>歸</w>": 9305,
      "生</w>": 9306,
      "_<w>懼</w>": 9307,
      "_<w>來": 9308,
      "_<w>量": 9309,
      "_<w>母": 9310,
      "_<w>貌</w>": 9311,
      "_<w>嗡": 9312,
      "_<w>測": 9313,
      "_<w>調</w>": 9314,
      "切</w>": 9315,
      "_<w>案": 9316,
      "_<w>蓄": 9317,
      "_<w>银": 9318,
      "_<w>率": 9319,
      "_<w>乳</w>": 9320,
      "困</w>": 9321,
      "楼</w>": 9322,
      "_<w>緣": 9323,
      "_<w>份</w>": 9324,
      "_<w>雀</w>": 9325,
      "_<w>珀</w>": 9326,
      "腎</w>": 9327,
      "_<w>称": 9328,
      "_<w>册": 9329,
      "_<w>飾": 9330,
      "鄂</w>": 9331,
      "_<w>麻": 9332,
      "_<w>简</w>": 9333,
      "頌</w>": 9334,
      "_<w>职</w>": 9335,
      "_<w>步</w>": 9336,
      "_<w>輸</w>": 9337,
      "_<w>私</w>": 9338,
      "_<w>亡": 9339,
      "_<w>碧</w>": 9340,
      "_<w>套</w>": 9341,
      "_<w>心": 9342,
      "_<w>洩": 9343,
      "_<w>漏</w>": 9344,
      "_<w>睾</w>": 9345,
      "_<w>秋": 9346,
      "_<w>芹</w>": 9347,
      "_<w>斜": 9348,
      "_<w>去</w>": 9349,
      "_<w>箭</w>": 9350,
      "_<w>真</w>": 9351,
      "_<w>屋": 9352,
      "_<w>筑</w>": 9353,
      "蝇</w>": 9354,
      "_<w>枚</w>": 9355,
      "_<w>蓋": 9356,
      "_<w>思</w>": 9357,
      "_<w>曲": 9358,
      "_<w>巢</w>": 9359,
      "_<w>緯": 9360,
      "_<w>煒</w>": 9361,
      "_<w>围": 9362,
      "_<w>瞳</w>": 9363,
      "芊</w>": 9364,
      "終</w>": 9365,
      "略</w>": 9366,
      "_<w>您</w>": 9367,
      "宽</w>": 9368,
      "_<w>痘</w>": 9369,
      "_<w>鼓": 9370,
      "_<w>舞</w>": 9371,
      "_<w>網</w>": 9372,
      "_<w>結</w>": 9373,
      "炫</w>": 9374,
      "_<w>晶": 9375,
      "_<w>純": 9376,
      "_<w>熙</w>": 9377,
      "姉</w>": 9378,
      "_<w>剧</w>": 9379,
      "_<w>泽": 9380,
      "顔</w>": 9381,
      "_<w>览</w>": 9382,
      "搞</w>": 9383,
      "莖</w>": 9384,
      "_<w>鹰</w>": 9385,
      "_<w>姨</w>": 9386,
      "_<w>器": 9387,
      "_<w>萃</w>": 9388,
      "为</w>": 9389,
      "_<w>暮</w>": 9390,
      "_<w>蕉": 9391,
      "療</w>": 9392,
      "_<w>贊</w>": 9393,
      "疊</w>": 9394,
      "_<w>災</w>": 9395,
      "_<w>署": 9396,
      "_<w>吾": 9397,
      "_<w>乾": 9398,
      "_<w>猴": 9399,
      "_<w>桃</w>": 9400,
      "_<w>矿": 9401,
      "_<w>蛇": 9402,
      "实</w>": 9403,
      "_<w>侯": 9404,
      "_<w>晒</w>": 9405,
      "_<w>慌</w>": 9406,
      "_<w>逐</w>": 9407,
      "_<w>俊": 9408,
      "_<w>婪</w>": 9409,
      "_<w>涉</w>": 9410,
      "_<w>幫</w>": 9411,
      "_<w>觉": 9412,
      "_<w>願": 9413,
      "_<w>如</w>": 9414,
      "嫗</w>": 9415,
      "_<w>香": 9416,
      "_<w>修": 9417,
      "_<w>航</w>": 9418,
      "租</w>": 9419,
      "_<w>罚": 9420,
      "_<w>半": 9421,
      "_<w>杜": 9422,
      "_<w>牢": 9423,
      "_<w>獄</w>": 9424,
      "龙</w>": 9425,
      "_<w>绿": 9426,
      "_<w>肚</w>": 9427,
      "_<w>促</w>": 9428,
      "_<w>爵": 9429,
      "_<w>贾</w>": 9430,
      "犁</w>": 9431,
      "封</w>": 9432,
      "_<w>产</w>": 9433,
      "_<w>晰": 9434,
      "齿</w>": 9435,
      "_<w>筋</w>": 9436,
      "_<w>驗": 9437,
      "_<w>亂": 9438,
      "_<w>邏": 9439,
      "_<w>狼": 9440,
      "_<w>譽</w>": 9441,
      "両</w>": 9442,
      "_<w>鸟</w>": 9443,
      "_<w>嚇</w>": 9444,
      "_<w>忧</w>": 9445,
      "_<w>勵</w>": 9446,
      "毆</w>": 9447,
      "_<w>億": 9448,
      "_<w>热": 9449,
      "_<w>證": 9450,
      "_<w>訟</w>": 9451,
      "_<w>图</w>": 9452,
      "_<w>稅": 9453,
      "_<w>設": 9454,
      "捷</w>": 9455,
      "疐</w>": 9456,
      "_<w>尋": 9457,
      "_<w>將": 9458,
      "_<w>控</w>": 9459,
      "_<w>閉": 9460,
      "_<w>月": 9461,
      "_<w>鸣</w>": 9462,
      "_<w>拘</w>": 9463,
      "_<w>适</w>": 9464,
      "批</w>": 9465,
      "_<w>调</w>": 9466,
      "蜡</w>": 9467,
      "_<w>話": 9468,
      "_<w>腾</w>": 9469,
      "_<w>闻": 9470,
      "宇</w>": 9471,
      "仏</w>": 9472,
      "_<w>歡": 9473,
      "_<w>鬥</w>": 9474,
      "_<w>蓄</w>": 9475,
      "_<w>淫</w>": 9476,
      "_<w>茅</w>": 9477,
      "廠</w>": 9478,
      "_<w>堤</w>": 9479,
      "_<w>崎": 9480,
      "_<w>卜</w>": 9481,
      "_<w>医</w>": 9482,
      "_<w>华</w>": 9483,
      "_<w>硫": 9484,
      "_<w>彎": 9485,
      "_<w>计</w>": 9486,
      "_<w>洋": 9487,
      "魏</w>": 9488,
      "阿</w>": 9489,
      "_<w>遁</w>": 9490,
      "_<w>浆</w>": 9491,
      "_<w>散</w>": 9492,
      "_<w>革</w>": 9493,
      "彘</w>": 9494,
      "_<w>固</w>": 9495,
      "_<w>夢": 9496,
      "稅</w>": 9497,
      "_<w>頃</w>": 9498,
      "_<w>傅</w>": 9499,
      "_<w>滥</w>": 9500,
      "_<w>渔": 9501,
      "_<w>縷</w>": 9502,
      "_<w>芽</w>": 9503,
      "_<w>藥</w>": 9504,
      "_<w>辱</w>": 9505,
      "醒</w>": 9506,
      "_<w>幻</w>": 9507,
      "_<w>也</w>": 9508,
      "_<w>绩</w>": 9509,
      "_<w>拟": 9510,
      "_<w>圓": 9511,
      "_<w>價": 9512,
      "_<w>虎": 9513,
      "基</w>": 9514,
      "_<w>毁</w>": 9515,
      "_<w>盆</w>": 9516,
      "_<w>灰</w>": 9517,
      "枚</w>": 9518,
      "合</w>": 9519,
      "_<w>砺</w>": 9520,
      "敢</w>": 9521,
      "_<w>离</w>": 9522,
      "_<w>蓉</w>": 9523,
      "置</w>": 9524,
      "_<w>豎</w>": 9525,
      "_<w>斷</w>": 9526,
      "_<w>敌</w>": 9527,
      "組</w>": 9528,
      "_<w>差</w>": 9529,
      "_<w>组</w>": 9530,
      "_<w>固": 9531,
      "虎</w>": 9532,
      "_<w>书": 9533,
      "_<w>缆</w>": 9534,
      "_<w>艺</w>": 9535,
      "_<w>缪": 9536,
      "_<w>責</w>": 9537,
      "_<w>委</w>": 9538,
      "_<w>霧</w>": 9539,
      "紮</w>": 9540,
      "_<w>估</w>": 9541,
      "_<w>蠻</w>": 9542,
      "_<w>切": 9543,
      "_<w>寅</w>": 9544,
      "_<w>筛</w>": 9545,
      "_<w>正</w>": 9546,
      "火</w>": 9547,
      "_<w>趣</w>": 9548,
      "_<w>旧</w>": 9549,
      "_<w>驚": 9550,
      "_<w>步": 9551,
      "角</w>": 9552,
      "_<w>陆</w>": 9553,
      "_<w>妖</w>": 9554,
      "_<w>浮</w>": 9555,
      "_<w>昌": 9556,
      "_<w>辉</w>": 9557,
      "_<w>酮</w>": 9558,
      "梵</w>": 9559,
      "_<w>硝": 9560,
      "_<w>脏</w>": 9561,
      "_<w>鬱": 9562,
      "_<w>鬱</w>": 9563,
      "_<w>不</w>": 9564,
      "_<w>颖</w>": 9565,
      "_<w>喜</w>": 9566,
      "鉆</w>": 9567,
      "_<w>权": 9568,
      "_<w>燕</w>": 9569,
      "_<w>述</w>": 9570,
      "_<w>占": 9571,
      "_<w>庭</w>": 9572,
      "花</w>": 9573,
      "_<w>畸</w>": 9574,
      "_<w>胱</w>": 9575,
      "_<w>端": 9576,
      "_<w>体": 9577,
      "_<w>构</w>": 9578,
      "_<w>平": 9579,
      "_<w>新": 9580,
      "燕</w>": 9581,
      "_<w>费": 9582,
      "_<w>软": 9583,
      "诗</w>": 9584,
      "_<w>鏡</w>": 9585,
      "_<w>珍": 9586,
      "_<w>革": 9587,
      "_<w>熱</w>": 9588,
      "_<w>联": 9589,
      "_<w>尺</w>": 9590,
      "_<w>胡</w>": 9591,
      "_<w>嬌": 9592,
      "_<w>戴": 9593,
      "_<w>两": 9594,
      "_<w>都</w>": 9595,
      "_<w>犬": 9596,
      "_<w>筷</w>": 9597,
      "_<w>绿</w>": 9598,
      "_<w>訓</w>": 9599,
      "_<w>軻</w>": 9600,
      "_<w>苯": 9601,
      "_<w>丙": 9602,
      "_<w>胺</w>": 9603,
      "_<w>盖</w>": 9604,
      "_<w>泛</w>": 9605,
      "_<w>处": 9606,
      "釧</w>": 9607,
      "狀</w>": 9608,
      "_<w>試</w>": 9609,
      "_<w>願</w>": 9610,
      "_<w>醬</w>": 9611,
      "顱</w>": 9612,
      "寰</w>": 9613,
      "级</w>": 9614,
      "_<w>仪": 9615,
      "偽</w>": 9616,
      "_<w>断</w>": 9617,
      "_<w>盛": 9618,
      "_<w>读</w>": 9619,
      "_<w>努</w>": 9620,
      "_<w>十</w>": 9621,
      "_<w>離": 9622,
      "_<w>室</w>": 9623,
      "淳</w>": 9624,
      "_<w>與</w>": 9625,
      "_<w>密</w>": 9626,
      "欖</w>": 9627,
      "_<w>尊</w>": 9628,
      "_<w>疤</w>": 9629,
      "_<w>彩": 9630,
      "_<w>缤": 9631,
      "_<w>纷</w>": 9632,
      "檯</w>": 9633,
      "_<w>卫</w>": 9634,
      "遭</w>": 9635,
      "_<w>现": 9636,
      "对</w>": 9637,
      "鑑</w>": 9638,
      "_<w>兽": 9639,
      "錳</w>": 9640,
      "夜</w>": 9641,
      "_<w>校": 9642,
      "_<w>資</w>": 9643,
      "_<w>藝</w>": 9644,
      "_<w>緒</w>": 9645,
      "_<w>卅</w>": 9646,
      "_<w>千</w>": 9647,
      "_<w>老": 9648,
      "_<w>婆</w>": 9649,
      "_<w>华": 9650,
      "_<w>锣</w>": 9651,
      "_<w>验": 9652,
      "噴</w>": 9653,
      "欣</w>": 9654,
      "_<w>牛": 9655,
      "_<w>奶</w>": 9656,
      "岬</w>": 9657,
      "_<w>视": 9658,
      "_<w>豪": 9659,
      "_<w>津": 9660,
      "_<w>劫": 9661,
      "_<w>稿</w>": 9662,
      "_<w>銀</w>": 9663,
      "_<w>聲": 9664,
      "_<w>檢</w>": 9665,
      "_<w>絮</w>": 9666,
      "_<w>畫": 9667,
      "_<w>土</w>": 9668,
      "_<w>死</w>": 9669,
      "_<w>佐</w>": 9670,
      "_<w>庆": 9671,
      "_<w>青": 9672,
      "_<w>留</w>": 9673,
      "_<w>瞎": 9674,
      "_<w>結": 9675,
      "出</w>": 9676,
      "_<w>爽</w>": 9677,
      "_<w>超": 9678,
      "_<w>感": 9679,
      "_<w>濱": 9680,
      "_<w>街</w>": 9681,
      "_<w>移</w>": 9682,
      "豢</w>": 9683,
      "妖</w>": 9684,
      "_<w>诚": 9685,
      "_<w>温</w>": 9686,
      "二</w>": 9687,
      "_<w>朱</w>": 9688,
      "_<w>啡": 9689,
      "_<w>場": 9690,
      "_<w>夠</w>": 9691,
      "_<w>聰</w>": 9692,
      "_<w>刻": 9693,
      "_<w>瓶</w>": 9694,
      "_<w>汽": 9695,
      "_<w>赞</w>": 9696,
      "_<w>庄</w>": 9697,
      "_<w>廉": 9698,
      "_<w>齐</w>": 9699,
      "_<w>号": 9700,
      "_<w>户": 9701,
      "_<w>痒</w>": 9702,
      "_<w>交</w>": 9703,
      "_<w>寂": 9704,
      "_<w>类": 9705,
      "_<w>你": 9706,
      "渦</w>": 9707,
      "_<w>祥": 9708,
      "_<w>常": 9709,
      "_<w>袍</w>": 9710,
      "_<w>片": 9711,
      "_<w>過": 9712,
      "_<w>俠</w>": 9713,
      "_<w>殼</w>": 9714,
      "_<w>貝": 9715,
      "_<w>駛": 9716,
      "_<w>霸</w>": 9717,
      "_<w>锁</w>": 9718,
      "_<w>療": 9719,
      "扬</w>": 9720,
      "_<w>兆</w>": 9721,
      "_<w>制": 9722,
      "_<w>懒</w>": 9723,
      "_<w>參": 9724,
      "_<w>害": 9725,
      "_<w>瓏</w>": 9726,
      "_<w>虫": 9727,
      "_<w>菊</w>": 9728,
      "_<w>超</w>": 9729,
      "_<w>寸</w>": 9730,
      "立</w>": 9731,
      "_<w>鸾</w>": 9732,
      "_<w>研": 9733,
      "_<w>究</w>": 9734,
      "_<w>采</w>": 9735,
      "辽</w>": 9736,
      "_<w>峽</w>": 9737,
      "_<w>檢": 9738,
      "_<w>告": 9739,
      "_<w>悲": 9740,
      "_<w>珀": 9741,
      "_<w>荷": 9742,
      "_<w>谨</w>": 9743,
      "_<w>劳</w>": 9744,
      "_<w>函": 9745,
      "_<w>崗": 9746,
      "_<w>岩</w>": 9747,
      "_<w>染": 9748,
      "_<w>除</w>": 9749,
      "_<w>吉</w>": 9750,
      "_<w>戮</w>": 9751,
      "_<w>架</w>": 9752,
      "_<w>榴</w>": 9753,
      "_<w>祖</w>": 9754,
      "蒴</w>": 9755,
      "_<w>焕</w>": 9756,
      "_<w>敢": 9757,
      "_<w>跳</w>": 9758,
      "_<w>廠</w>": 9759,
      "_<w>润</w>": 9760,
      "_<w>擁</w>": 9761,
      "_<w>桌": 9762,
      "_<w>幹</w>": 9763,
      "_<w>碼</w>": 9764,
      "_<w>们</w>": 9765,
      "_<w>款</w>": 9766,
      "里</w>": 9767,
      "_<w>鏈</w>": 9768,
      "_<w>暖</w>": 9769,
      "_<w>谷": 9770,
      "箭</w>": 9771,
      "簽</w>": 9772,
      "_<w>未</w>": 9773,
      "_<w>驗</w>": 9774,
      "_<w>購</w>": 9775,
      "_<w>告</w>": 9776,
      "_<w>濱</w>": 9777,
      "_<w>桩</w>": 9778,
      "_<w>徽": 9779,
      "_<w>别": 9780,
      "尖</w>": 9781,
      "薰</w>": 9782,
      "_<w>呼": 9783,
      "_<w>籲</w>": 9784,
      "_<w>涛</w>": 9785,
      "_<w>澤": 9786,
      "_<w>康": 9787,
      "_<w>紋": 9788,
      "_<w>舒": 9789,
      "_<w>六": 9790,
      "_<w>关": 9791,
      "腆</w>": 9792,
      "_<w>條": 9793,
      "_<w>跤</w>": 9794,
      "_<w>隱": 9795,
      "_<w>统</w>": 9796,
      "_<w>微": 9797,
      "_<w>示": 9798,
      "昌</w>": 9799,
      "_<w>豫</w>": 9800,
      "_<w>蝨</w>": 9801,
      "_<w>聖</w>": 9802,
      "_<w>舱</w>": 9803,
      "_<w>豆": 9804,
      "_<w>当": 9805,
      "_<w>卢</w>": 9806,
      "_<w>宁": 9807,
      "_<w>原</w>": 9808,
      "_<w>具</w>": 9809,
      "_<w>仑</w>": 9810,
      "_<w>靈</w>": 9811,
      "峰</w>": 9812,
      "_<w>嘛</w>": 9813,
      "_<w>架": 9814,
      "_<w>膨": 9815,
      "_<w>脹</w>": 9816,
      "_<w>坂</w>": 9817,
      "_<w>露</w>": 9818,
      "_<w>貿</w>": 9819,
      "埋</w>": 9820,
      "_<w>灭</w>": 9821,
      "_<w>只</w>": 9822,
      "_<w>極": 9823,
      "_<w>芸": 9824,
      "朵</w>": 9825,
      "_<w>淡": 9826,
      "_<w>綱": 9827,
      "_<w>領</w>": 9828,
      "酔</w>": 9829,
      "_<w>点": 9830,
      "_<w>恨</w>": 9831,
      "_<w>惡</w>": 9832,
      "_<w>响": 9833,
      "_<w>灣</w>": 9834,
      "漉</w>": 9835,
      "_<w>耗</w>": 9836,
      "_<w>善": 9837,
      "_<w>低</w>": 9838,
      "_<w>避": 9839,
      "_<w>斗</w>": 9840,
      "_<w>春": 9841,
      "亞</w>": 9842,
      "_<w>故</w>": 9843,
      "_<w>氏": 9844,
      "_<w>垂</w>": 9845,
      "_<w>悼": 9846,
      "_<w>輔</w>": 9847,
      "_<w>幣</w>": 9848,
      "_<w>尿": 9849,
      "於</w>": 9850,
      "_<w>轟": 9851,
      "_<w>慕": 9852,
      "职</w>": 9853,
      "_<w>億</w>": 9854,
      "辮</w>": 9855,
      "_<w>孤": 9856,
      "_<w>韋": 9857,
      "_<w>魂</w>": 9858,
      "_<w>軟": 9859,
      "_<w>响</w>": 9860,
      "_<w>纺</w>": 9861,
      "_<w>裨": 9862,
      "_<w>牲</w>": 9863,
      "_<w>壳</w>": 9864,
      "恋</w>": 9865,
      "_<w>滿</w>": 9866,
      "_<w>未": 9867,
      "_<w>栗</w>": 9868,
      "_<w>直</w>": 9869,
      "_<w>脂</w>": 9870,
      "登</w>": 9871,
      "穴</w>": 9872,
      "_<w>洩</w>": 9873,
      "宿</w>": 9874,
      "_<w>磨</w>": 9875,
      "_<w>詢</w>": 9876,
      "_<w>镇</w>": 9877,
      "_<w>藤</w>": 9878,
      "_<w>奮": 9879,
      "_<w>剛</w>": 9880,
      "_<w>锁": 9881,
      "_<w>岗": 9882,
      "_<w>映</w>": 9883,
      "圧</w>": 9884,
      "_<w>午</w>": 9885,
      "_<w>頻</w>": 9886,
      "_<w>確</w>": 9887,
      "_<w>極</w>": 9888,
      "_<w>棟": 9889,
      "_<w>貼</w>": 9890,
      "_<w>此": 9891,
      "_<w>推</w>": 9892,
      "_<w>洲": 9893,
      "_<w>劃": 9894,
      "y</w>": 9895,
      "_<w>照": 9896,
      "_<w>軛": 9897,
      "_<w>籍</w>": 9898,
      "_<w>榈": 9899,
      "_<w>騎": 9900,
      "惏</w>": 9901,
      "_<w>蝎</w>": 9902,
      "库</w>": 9903,
      "_<w>陰": 9904,
      "奌</w>": 9905,
      "_<w>环</w>": 9906,
      "遊</w>": 9907,
      "_<w>笔</w>": 9908,
      "_<w>崎</w>": 9909,
      "_<w>完</w>": 9910,
      "_<w>起": 9911,
      "怦</w>": 9912,
      "_<w>捷": 9913,
      "_<w>早": 9914,
      "_<w>升</w>": 9915,
      "_<w>忽": 9916,
      "又</w>": 9917,
      "軫</w>": 9918,
      "_<w>颌</w>": 9919,
      "_<w>習</w>": 9920,
      "_<w>賃</w>": 9921,
      "镖</w>": 9922,
      "_<w>舊</w>": 9923,
      "_<w>圖": 9924,
      "_<w>朵</w>": 9925,
      "_<w>侧</w>": 9926,
      "_<w>騰</w>": 9927,
      "_<w>最": 9928,
      "_<w>佳</w>": 9929,
      "_<w>織": 9930,
      "_<w>窄</w>": 9931,
      "牆</w>": 9932,
      "坂</w>": 9933,
      "悪</w>": 9934,
      "_<w>链</w>": 9935,
      "_<w>夏</w>": 9936,
      "_<w>控": 9937,
      "踝</w>": 9938,
      "_<w>横": 9939,
      "_<w>溢</w>": 9940,
      "_<w>寬</w>": 9941,
      "_<w>辦": 9942,
      "_<w>认": 9943,
      "_<w>姍</w>": 9944,
      "_<w>吞": 9945,
      "_<w>络": 9946,
      "_<w>延": 9947,
      "_<w>半</w>": 9948,
      "_<w>芳": 9949,
      "_<w>聪</w>": 9950,
      "钕</w>": 9951,
      "_<w>戌</w>": 9952,
      "_<w>座": 9953,
      "_<w>朴</w>": 9954,
      "_<w>燒</w>": 9955,
      "_<w>走": 9956,
      "_<w>伞</w>": 9957,
      "_<w>鸭</w>": 9958,
      "_<w>八": 9959,
      "_<w>粹": 9960,
      "_<w>祿</w>": 9961,
      "_<w>綢</w>": 9962,
      "監</w>": 9963,
      "_<w>慧</w>": 9964,
      "_<w>舉": 9965,
      "_<w>素": 9966,
      "_<w>質</w>": 9967,
      "別</w>": 9968,
      "_<w>冕</w>": 9969,
      "_<w>导</w>": 9970,
      "_<w>凯": 9971,
      "_<w>获</w>": 9972,
      "牙</w>": 9973,
      "_<w>盏</w>": 9974,
      "_<w>汤</w>": 9975,
      "_<w>干": 9976,
      "_<w>旱</w>": 9977,
      "重</w>": 9978,
      "_<w>烴</w>": 9979,
      "_<w>纽</w>": 9980,
      "_<w>据</w>": 9981,
      "_<w>惠</w>": 9982,
      "_<w>院": 9983,
      "_<w>画</w>": 9984,
      "撞</w>": 9985,
      "_<w>盎": 9986,
      "叶</w>": 9987,
      "_<w>蚊</w>": 9988,
      "_<w>醉</w>": 9989,
      "_<w>汝": 9990,
      "_<w>疗</w>": 9991,
      "_<w>破</w>": 9992,
      "_<w>螺": 9993,
      "_<w>客": 9994,
      "_<w>净</w>": 9995,
      "撻</w>": 9996,
      "_<w>镀</w>": 9997,
      "_<w>览": 9998,
      "_<w>散": 9999,
      "_<w>繪</w>": 10000,
      "_<w>獅": 10001,
      "_<w>爐</w>": 10002,
      "_<w>螺</w>": 10003,
      "g</w>": 10004,
      "流</w>": 10005,
      "_<w>狼</w>": 10006,
      "_<w>份": 10007,
      "_<w>证": 10008,
      "_<w>詠": 10009,
      "_<w>麟</w>": 10010,
      "_<w>檳</w>": 10011,
      "_<w>宇</w>": 10012,
      "_<w>瑾</w>": 10013,
      "_<w>压": 10014,
      "_<w>迫</w>": 10015,
      "_<w>履": 10016,
      "_<w>虫</w>": 10017,
      "_<w>隔": 10018,
      "_<w>数": 10019,
      "_<w>賓": 10020,
      "_<w>嘟</w>": 10021,
      "_<w>岳</w>": 10022,
      "_<w>距": 10023,
      "_<w>谢</w>": 10024,
      "_<w>毛": 10025,
      "砺</w>": 10026,
      "_<w>訂</w>": 10027,
      "_<w>稿": 10028,
      "_<w>鈴": 10029,
      "_<w>闻</w>": 10030,
      "_<w>受": 10031,
      "_<w>谴": 10032,
      "_<w>责</w>": 10033,
      "_<w>忘</w>": 10034,
      "_<w>旅": 10035,
      "_<w>算</w>": 10036,
      "_<w>尚": 10037,
      "腺</w>": 10038,
      "_<w>禮": 10039,
      "棺</w>": 10040,
      "_<w>廓": 10041,
      "_<w>盘</w>": 10042,
      "_<w>窍</w>": 10043,
      "_<w>妄</w>": 10044,
      "_<w>鴻</w>": 10045,
      "_<w>爱": 10046,
      "_<w>壁": 10047,
      "_<w>糖</w>": 10048,
      "_<w>援</w>": 10049,
      "_<w>眠</w>": 10050,
      "_<w>捉</w>": 10051,
      "拏</w>": 10052,
      "_<w>儲": 10053,
      "_<w>儲</w>": 10054,
      "_<w>帅</w>": 10055,
      "_<w>賈": 10056,
      "_<w>壟": 10057,
      "_<w>嬰</w>": 10058,
      "_<w>陈</w>": 10059,
      "_<w>退</w>": 10060,
      "方</w>": 10061,
      "_<w>嚴</w>": 10062,
      "_<w>坎</w>": 10063,
      "盔</w>": 10064,
      "恆</w>": 10065,
      "_<w>污": 10066,
      "_<w>染</w>": 10067,
      "_<w>臉</w>": 10068,
      "_<w>拓</w>": 10069,
      "_<w>踢": 10070,
      "龕</w>": 10071,
      "_<w>欧</w>": 10072,
      "_<w>么": 10073,
      "_<w>办</w>": 10074,
      "_<w>斐": 10075,
      "_<w>听</w>": 10076,
      "_<w>獲</w>": 10077,
      "_<w>稈</w>": 10078,
      "_<w>煩</w>": 10079,
      "_<w>漿": 10080,
      "_<w>污</w>": 10081,
      "_<w>淨</w>": 10082,
      "_<w>鲍": 10083,
      "灸</w>": 10084,
      "_<w>詠</w>": 10085,
      "x</w>": 10086,
      "_<w>臂</w>": 10087,
      "_<w>谷</w>": 10088,
      "段</w>": 10089,
      "_<w>譯</w>": 10090,
      "_<w>瑞</w>": 10091,
      "硼</w>": 10092,
      "_<w>砌</w>": 10093,
      "_<w>澳": 10094,
      "_<w>撒</w>": 10095,
      "_<w>闳</w>": 10096,
      "_<w>坑</w>": 10097,
      "_<w>慈": 10098,
      "_<w>詰</w>": 10099,
      "_<w>泄": 10100,
      "_<w>贾": 10101,
      "_<w>羚</w>": 10102,
      "_<w>鹅</w>": 10103,
      "_<w>监": 10104,
      "_<w>益": 10105,
      "_<w>胞": 10106,
      "_<w>韦</w>": 10107,
      "_<w>逊": 10108,
      "_<w>肢</w>": 10109,
      "_<w>从</w>": 10110,
      "柱</w>": 10111,
      "_<w>雙</w>": 10112,
      "_<w>紐</w>": 10113,
      "_<w>頒</w>": 10114,
      "_<w>橡": 10115,
      "_<w>困": 10116,
      "_<w>忘": 10117,
      "0</w>": 10118,
      "苇</w>": 10119,
      "_<w>伐</w>": 10120,
      "_<w>龄": 10121,
      "_<w>幹": 10122,
      "_<w>晴": 10123,
      "_<w>钟</w>": 10124,
      "応</w>": 10125,
      "_<w>琅": 10126,
      "藍</w>": 10127,
      "_<w>细": 10128,
      "_<w>悠": 10129,
      "_<w>圓</w>": 10130,
      "_<w>疏": 10131,
      "澇</w>": 10132,
      "_<w>荡</w>": 10133,
      "_<w>伏": 10134,
      "_<w>灣": 10135,
      "_<w>兽</w>": 10136,
      "攞</w>": 10137,
      "_<w>愧</w>": 10138,
      "_<w>迷": 10139,
      "職</w>": 10140,
      "_<w>勳</w>": 10141,
      "惑</w>": 10142,
      "_<w>傭</w>": 10143,
      "蜊</w>": 10144,
      "_<w>牟</w>": 10145,
      "东</w>": 10146,
      "龍</w>": 10147,
      "_<w>绅</w>": 10148,
      "窮</w>": 10149,
      "_<w>報": 10150,
      "_<w>異": 10151,
      "_<w>撒": 10152,
      "肺</w>": 10153,
      "_<w>匯": 10154,
      "_<w>芾</w>": 10155,
      "_<w>臨</w>": 10156,
      "_<w>解": 10157,
      "_<w>鮮": 10158,
      "愈</w>": 10159,
      "_<w>酱</w>": 10160,
      "_<w>踐": 10161,
      "_<w>壓": 10162,
      "_<w>齡": 10163,
      "_<w>轴": 10164,
      "_<w>斧</w>": 10165,
      "翊</w>": 10166,
      "噛</w>": 10167,
      "_<w>怪</w>": 10168,
      "擋</w>": 10169,
      "_<w>辭</w>": 10170,
      "贊</w>": 10171,
      "_<w>酶</w>": 10172,
      "_<w>鑼</w>": 10173,
      "_<w>六</w>": 10174,
      "淨</w>": 10175,
      "_<w>柔</w>": 10176,
      "_<w>斑</w>": 10177,
      "詻</w>": 10178,
      "_<w>掌</w>": 10179,
      "_<w>雕</w>": 10180,
      "_<w>诗</w>": 10181,
      "_<w>河": 10182,
      "_<w>凍</w>": 10183,
      "_<w>鈴</w>": 10184,
      "_<w>姬</w>": 10185,
      "_<w>彻</w>": 10186,
      "铍</w>": 10187,
      "厳</w>": 10188,
      "猩</w>": 10189,
      "_<w>並": 10190,
      "_<w>钢</w>": 10191,
      "艴</w>": 10192,
      "_<w>哪": 10193,
      "谋</w>": 10194,
      "_<w>考</w>": 10195,
      "_<w>餚</w>": 10196,
      "_<w>王": 10197,
      "_<w>佔": 10198,
      "_<w>烧</w>": 10199,
      "世</w>": 10200,
      "_<w>貞": 10201,
      "蚱</w>": 10202,
      "_<w>勝": 10203,
      "_<w>危</w>": 10204,
      "_<w>亡</w>": 10205,
      "尻</w>": 10206,
      "致</w>": 10207,
      "鏽</w>": 10208,
      "_<w>樞": 10209,
      "_<w>绒</w>": 10210,
      "_<w>騙</w>": 10211,
      "_<w>弥": 10212,
      "_<w>汾": 10213,
      "籐</w>": 10214,
      "團</w>": 10215,
      "_<w>玉</w>": 10216,
      "溍</w>": 10217,
      "_<w>搖": 10218,
      "_<w>擺</w>": 10219,
      "_<w>慎": 10220,
      "_<w>仇</w>": 10221,
      "聼</w>": 10222,
      "鱲</w>": 10223,
      "_<w>证</w>": 10224,
      "_<w>宜</w>": 10225,
      "_<w>阿</w>": 10226,
      "_<w>栋</w>": 10227,
      "戲</w>": 10228,
      "_<w>尤</w>": 10229,
      "_<w>瓚</w>": 10230,
      "_<w>盤": 10231,
      "_<w>瀾</w>": 10232,
      "_<w>无</w>": 10233,
      "_<w>冰": 10234,
      "_<w>勺</w>": 10235,
      "易</w>": 10236,
      "_<w>徑</w>": 10237,
      "_<w>冑</w>": 10238,
      "刚</w>": 10239,
      "_<w>彼": 10240,
      "_<w>蓝</w>": 10241,
      "筷</w>": 10242,
      "_<w>鹅": 10243,
      "_<w>僧</w>": 10244,
      "_<w>莲": 10245,
      "_<w>液": 10246,
      "_<w>癌</w>": 10247,
      "_<w>若": 10248,
      "_<w>纬": 10249,
[...]
